{
  "version": "1.0",
  "truncation": null,
  "padding": null,
  "added_tokens": [
    {
      "id": 0,
      "content": "<|endoftext|>",
      "single_word": false,
      "lstrip": false,
      "rstrip": false,
      "normalized": false,
      "special": true
    },
    {
      "id": 1,
      "content": "<|md_reserved_0|>",
      "single_word": false,
      "lstrip": false,
      "rstrip": false,
      "normalized": false,
      "special": true
    },
    {
      "id": 2,
      "content": "<|md_reserved_1|>",
      "single_word": false,
      "lstrip": false,
      "rstrip": false,
      "normalized": false,
      "special": true
    },
    {
      "id": 3,
      "content": "<|md_reserved_2|>",
      "single_word": false,
      "lstrip": false,
      "rstrip": false,
      "normalized": false,
      "special": true
    },
    {
      "id": 4,
      "content": "<|md_reserved_3|>",
      "single_word": false,
      "lstrip": false,
      "rstrip": false,
      "normalized": false,
      "special": true
    },
    {
      "id": 5,
      "content": "<|md_reserved_4|>",
      "single_word": false,
      "lstrip": false,
      "rstrip": false,
      "normalized": false,
      "special": true
    },
    {
      "id": 6,
      "content": "<|md_reserved_5|>",
      "single_word": false,
      "lstrip": false,
      "rstrip": false,
      "normalized": false,
      "special": true
    },
    {
      "id": 7,
      "content": "<|md_reserved_6|>",
      "single_word": false,
      "lstrip": false,
      "rstrip": false,
      "normalized": false,
      "special": true
    },
    {
      "id": 8,
      "content": "<|md_reserved_7|>",
      "single_word": false,
      "lstrip": false,
      "rstrip": false,
      "normalized": false,
      "special": true
    },
    {
      "id": 9,
      "content": "<|md_reserved_8|>",
      "single_word": false,
      "lstrip": false,
      "rstrip": false,
      "normalized": false,
      "special": true
    },
    {
      "id": 10,
      "content": "<|md_reserved_9|>",
      "single_word": false,
      "lstrip": false,
      "rstrip": false,
      "normalized": false,
      "special": true
    },
    {
      "id": 11,
      "content": "<|md_reserved_10|>",
      "single_word": false,
      "lstrip": false,
      "rstrip": false,
      "normalized": false,
      "special": true
    },
    {
      "id": 12,
      "content": "<|md_reserved_11|>",
      "single_word": false,
      "lstrip": false,
      "rstrip": false,
      "normalized": false,
      "special": true
    },
    {
      "id": 13,
      "content": "<|md_reserved_12|>",
      "single_word": false,
      "lstrip": false,
      "rstrip": false,
      "normalized": false,
      "special": true
    },
    {
      "id": 14,
      "content": "<|md_reserved_13|>",
      "single_word": false,
      "lstrip": false,
      "rstrip": false,
      "normalized": false,
      "special": true
    },
    {
      "id": 15,
      "content": "<|md_reserved_14|>",
      "single_word": false,
      "lstrip": false,
      "rstrip": false,
      "normalized": false,
      "special": true
    },
    {
      "id": 16,
      "content": "<|md_reserved_15|>",
      "single_word": false,
      "lstrip": false,
      "rstrip": false,
      "normalized": false,
      "special": true
    },
    {
      "id": 17,
      "content": "<|md_reserved_16|>",
      "single_word": false,
      "lstrip": false,
      "rstrip": false,
      "normalized": false,
      "special": true
    },
    {
      "id": 18,
      "content": "<|md_reserved_17|>",
      "single_word": false,
      "lstrip": false,
      "rstrip": false,
      "normalized": false,
      "special": true
    },
    {
      "id": 19,
      "content": "<|md_reserved_18|>",
      "single_word": false,
      "lstrip": false,
      "rstrip": false,
      "normalized": false,
      "special": true
    },
    {
      "id": 20,
      "content": "<|md_reserved_19|>",
      "single_word": false,
      "lstrip": false,
      "rstrip": false,
      "normalized": false,
      "special": true
    }
  ],
  "normalizer": null,
  "pre_tokenizer": {
    "type": "Sequence",
    "pretokenizers": [
      {
        "type": "Split",
        "pattern": {
          "Regex": "(?<=\\d)(?=(?:\\d{3})+(?!\\d))|(?<=\\D)(?=\\d)|(?<=\\d)(?=\\D)|(?<=-)(?=\\|)|(?<=\\|)(?=-)"
        },
        "behavior": "Isolated",
        "invert": false
      },
      {
        "type": "ByteLevel",
        "add_prefix_space": false,
        "trim_offsets": true,
        "use_regex": false
      }
    ]
  },
  "post_processor": null,
  "decoder": {
    "type": "ByteLevel",
    "add_prefix_space": true,
    "trim_offsets": true,
    "use_regex": true
  },
  "model": {
    "type": "BPE",
    "dropout": null,
    "unk_token": null,
    "continuing_subword_prefix": null,
    "end_of_word_suffix": null,
    "fuse_unk": false,
    "byte_fallback": false,
    "ignore_merges": false,
    "vocab": {
      "<|endoftext|>": 0,
      "<|md_reserved_0|>": 1,
      "<|md_reserved_1|>": 2,
      "<|md_reserved_2|>": 3,
      "<|md_reserved_3|>": 4,
      "<|md_reserved_4|>": 5,
      "<|md_reserved_5|>": 6,
      "<|md_reserved_6|>": 7,
      "<|md_reserved_7|>": 8,
      "<|md_reserved_8|>": 9,
      "<|md_reserved_9|>": 10,
      "<|md_reserved_10|>": 11,
      "<|md_reserved_11|>": 12,
      "<|md_reserved_12|>": 13,
      "<|md_reserved_13|>": 14,
      "<|md_reserved_14|>": 15,
      "<|md_reserved_15|>": 16,
      "<|md_reserved_16|>": 17,
      "<|md_reserved_17|>": 18,
      "<|md_reserved_18|>": 19,
      "<|md_reserved_19|>": 20,
      "!": 21,
      "\"": 22,
      "#": 23,
      "$": 24,
      "%": 25,
      "&": 26,
      "'": 27,
      "(": 28,
      ")": 29,
      "*": 30,
      "+": 31,
      ",": 32,
      "-": 33,
      ".": 34,
      "/": 35,
      "0": 36,
      "1": 37,
      "2": 38,
      "3": 39,
      "4": 40,
      "5": 41,
      "6": 42,
      "7": 43,
      "8": 44,
      "9": 45,
      ":": 46,
      ";": 47,
      "<": 48,
      "=": 49,
      ">": 50,
      "?": 51,
      "@": 52,
      "A": 53,
      "B": 54,
      "C": 55,
      "D": 56,
      "E": 57,
      "F": 58,
      "G": 59,
      "H": 60,
      "I": 61,
      "J": 62,
      "K": 63,
      "L": 64,
      "M": 65,
      "N": 66,
      "O": 67,
      "P": 68,
      "Q": 69,
      "R": 70,
      "S": 71,
      "T": 72,
      "U": 73,
      "V": 74,
      "W": 75,
      "X": 76,
      "Y": 77,
      "Z": 78,
      "[": 79,
      "\\": 80,
      "]": 81,
      "^": 82,
      "_": 83,
      "`": 84,
      "a": 85,
      "b": 86,
      "c": 87,
      "d": 88,
      "e": 89,
      "f": 90,
      "g": 91,
      "h": 92,
      "i": 93,
      "j": 94,
      "k": 95,
      "l": 96,
      "m": 97,
      "n": 98,
      "o": 99,
      "p": 100,
      "q": 101,
      "r": 102,
      "s": 103,
      "t": 104,
      "u": 105,
      "v": 106,
      "w": 107,
      "x": 108,
      "y": 109,
      "z": 110,
      "{": 111,
      "|": 112,
      "}": 113,
      "~": 114,
      "¡": 115,
      "¢": 116,
      "£": 117,
      "¤": 118,
      "¥": 119,
      "¦": 120,
      "§": 121,
      "¨": 122,
      "©": 123,
      "ª": 124,
      "«": 125,
      "¬": 126,
      "®": 127,
      "¯": 128,
      "°": 129,
      "±": 130,
      "²": 131,
      "³": 132,
      "´": 133,
      "µ": 134,
      "¶": 135,
      "·": 136,
      "¸": 137,
      "¹": 138,
      "º": 139,
      "»": 140,
      "¼": 141,
      "½": 142,
      "¾": 143,
      "¿": 144,
      "Â": 145,
      "Ã": 146,
      "Ä": 147,
      "Å": 148,
      "Æ": 149,
      "Ç": 150,
      "È": 151,
      "É": 152,
      "Ê": 153,
      "Ë": 154,
      "Ì": 155,
      "Í": 156,
      "Î": 157,
      "Ï": 158,
      "Ð": 159,
      "Ñ": 160,
      "Ò": 161,
      "Ó": 162,
      "Ô": 163,
      "Õ": 164,
      "Ö": 165,
      "×": 166,
      "Ø": 167,
      "Ù": 168,
      "Ú": 169,
      "Û": 170,
      "Ü": 171,
      "Ý": 172,
      "Þ": 173,
      "ß": 174,
      "à": 175,
      "á": 176,
      "â": 177,
      "ã": 178,
      "ä": 179,
      "å": 180,
      "æ": 181,
      "ç": 182,
      "è": 183,
      "é": 184,
      "ê": 185,
      "ë": 186,
      "ì": 187,
      "í": 188,
      "î": 189,
      "ï": 190,
      "ð": 191,
      "ó": 192,
      "ô": 193,
      "ā": 194,
      "Ă": 195,
      "ă": 196,
      "Ą": 197,
      "ą": 198,
      "Ć": 199,
      "ć": 200,
      "Ĉ": 201,
      "ĉ": 202,
      "Ċ": 203,
      "ċ": 204,
      "Č": 205,
      "č": 206,
      "Ď": 207,
      "ď": 208,
      "Đ": 209,
      "đ": 210,
      "Ē": 211,
      "ē": 212,
      "Ĕ": 213,
      "ĕ": 214,
      "Ė": 215,
      "ė": 216,
      "Ę": 217,
      "ę": 218,
      "Ě": 219,
      "ě": 220,
      "Ĝ": 221,
      "ĝ": 222,
      "Ğ": 223,
      "ğ": 224,
      "Ġ": 225,
      "ġ": 226,
      "Ģ": 227,
      "ģ": 228,
      "Ĥ": 229,
      "ĥ": 230,
      "Ħ": 231,
      "ħ": 232,
      "Ĩ": 233,
      "ĩ": 234,
      "Ī": 235,
      "ī": 236,
      "Ĭ": 237,
      "ĭ": 238,
      "Į": 239,
      "į": 240,
      "İ": 241,
      "ı": 242,
      "Ĳ": 243,
      "ĳ": 244,
      "Ĵ": 245,
      "ĵ": 246,
      "Ķ": 247,
      "ķ": 248,
      "ĸ": 249,
      "Ĺ": 250,
      "ĺ": 251,
      "Ļ": 252,
      "ļ": 253,
      "Ľ": 254,
      "ľ": 255,
      "Ŀ": 256,
      "ŀ": 257,
      "Ł": 258,
      "ł": 259,
      "Ń": 260,
      "Ġt": 261,
      "ĠĠ": 262,
      "he": 263,
      "Ġa": 264,
      "in": 265,
      "re": 266,
      "Ġthe": 267,
      "on": 268,
      "er": 269,
      "Ġs": 270,
      "at": 271,
      "Ġo": 272,
      "en": 273,
      "Ġc": 274,
      "es": 275,
      "is": 276,
      "Ġw": 277,
      "it": 278,
      "an": 279,
      "or": 280,
      "ĠĠĠĠ": 281,
      "Ġp": 282,
      "al": 283,
      "Ġf": 284,
      "Ġb": 285,
      "Ġof": 286,
      "Ġan": 287,
      "ed": 288,
      "Ġd": 289,
      "ar": 290,
      "Ġin": 291,
      "ing": 292,
      "ou": 293,
      "Ġm": 294,
      "ic": 295,
      "ion": 296,
      "Ġto": 297,
      "Ġand": 298,
      "le": 299,
      "as": 300,
      "ro": 301,
      "Ġth": 302,
      "Ġh": 303,
      "ent": 304,
      "Ġn": 305,
      "Ġe": 306,
      "Ġl": 307,
      "ct": 308,
      "Ġre": 309,
      "el": 310,
      "st": 311,
      "om": 312,
      "il": 313,
      "ĠĠĠ": 314,
      "et": 315,
      "Ġis": 316,
      "im": 317,
      "ut": 318,
      "ur": 319,
      "ĠT": 320,
      "Ġg": 321,
      "us": 322,
      "ot": 323,
      "ol": 324,
      "ve": 325,
      "ch": 326,
      "un": 327,
      "âĢ": 328,
      "id": 329,
      "Ġbe": 330,
      "ig": 331,
      "ce": 332,
      "ra": 333,
      "ly": 334,
      "ation": 335,
      "um": 336,
      "ĠĠĠĠĠĠĠĠ": 337,
      "ow": 338,
      "ĠA": 339,
      "ĠS": 340,
      "Ġfor": 341,
      "ĠI": 342,
      "ul": 343,
      "Ġthat": 344,
      "am": 345,
      "Ġst": 346,
      "ver": 347,
      "if": 348,
      "Ġon": 349,
      "ir": 350,
      "od": 351,
      "se": 352,
      "ĠC": 353,
      "ith": 354,
      "--": 355,
      "ad": 356,
      "Ġit": 357,
      "ay": 358,
      "Ġas": 359,
      "ist": 360,
      "Ġde": 361,
      "her": 362,
      "Ġwh": 363,
      "Ġcon": 364,
      "Ġwith": 365,
      "ter": 366,
      "Ġ(": 367,
      "ge": 368,
      "Ġy": 369,
      "ĠThe": 370,
      "Ġal": 371,
      "Ġv": 372,
      "Ġor": 373,
      "Ġpro": 374,
      "ers": 375,
      "qu": 376,
      "Ġare": 377,
      "and": 378,
      "ĠM": 379,
      "ĠP": 380,
      "ate": 381,
      "res": 382,
      "oun": 383,
      "ĠB": 384,
      "ab": 385,
      "ri": 386,
      "ere": 387,
      "ment": 388,
      "est": 389,
      "th": 390,
      "Ġ=": 391,
      "pe": 392,
      "ĠĠĠĠĠĠĠ": 393,
      "Ġex": 394,
      "os": 395,
      "ess": 396,
      "ain": 397,
      "em": 398,
      "ac": 399,
      "rom": 400,
      "op": 401,
      "Ġhe": 402,
      "Ġby": 403,
      "ill": 404,
      "Ġcom": 405,
      "Ġyou": 406,
      "Ġse": 407,
      "ht": 408,
      "ore": 409,
      "iv": 410,
      "Âł": 411,
      "Ġr": 412,
      "Ġsu": 413,
      "ĠD": 414,
      "ld": 415,
      "ant": 416,
      "ĠH": 417,
      "ĠF": 418,
      "int": 419,
      "ction": 420,
      "Ġ\"": 421,
      "Ġun": 422,
      "Ġat": 423,
      "ke": 424,
      "Ġnot": 425,
      "Ġus": 426,
      "ies": 427,
      "ort": 428,
      "ĠE": 429,
      "ĠR": 430,
      "Ġfrom": 431,
      "pp": 432,
      "Ġwas": 433,
      "ity": 434,
      "ĠW": 435,
      "ich": 436,
      "end": 437,
      "Ġ|": 438,
      "..": 439,
      "Ġha": 440,
      "Ġne": 441,
      "ber": 442,
      "oc": 443,
      "art": 444,
      "ĠN": 445,
      "Ġch": 446,
      "ive": 447,
      "ĠG": 448,
      "ĠL": 449,
      "ure": 450,
      "pt": 451,
      "ie": 452,
      "Ġle": 453,
      "ĠâĢ": 454,
      "pl": 455,
      "all": 456,
      "ight": 457,
      "âĢĻ": 458,
      "ud": 459,
      "----": 460,
      "Ġsh": 461,
      "Ġcan": 462,
      "per": 463,
      "ial": 464,
      "Ġthis": 465,
      "Ġhave": 466,
      "00": 467,
      "ell": 468,
      "Ġint": 469,
      "ind": 470,
      "ue": 471,
      "ould": 472,
      "ine": 473,
      "ord": 474,
      "og": 475,
      "ect": 476,
      "ther": 477,
      "our": 478,
      "Ġwhich": 479,
      "ical": 480,
      "ag": 481,
      "nt": 482,
      "Ġwe": 483,
      "ard": 484,
      "ame": 485,
      "ass": 486,
      "ust": 487,
      "age": 488,
      "The": 489,
      "Ġpl": 490,
      "Ġim": 491,
      "rint": 492,
      "hen": 493,
      "Ġab": 494,
      "ous": 495,
      "ost": 496,
      "ĠO": 497,
      "act": 498,
      "ult": 499,
      "ak": 500,
      "elf": 501,
      "ans": 502,
      "ome": 503,
      "ated": 504,
      "ex": 505,
      "iz": 506,
      "Ġall": 507,
      "Ġk": 508,
      "ĠIn": 509,
      "Ġnum": 510,
      "ound": 511,
      "ff": 512,
      "Ġif": 513,
      "Ġar": 514,
      "oug": 515,
      "__": 516,
      "ast": 517,
      "out": 518,
      "ap": 519,
      "Ġen": 520,
      "ib": 521,
      "up": 522,
      "urn": 523,
      "ary": 524,
      "red": 525,
      "ong": 526,
      "cl": 527,
      "ach": 528,
      "Ġtheir": 529,
      "ount": 530,
      "Ġcl": 531,
      "der": 532,
      "Ġthey": 533,
      "Ġcont": 534,
      "his": 535,
      "cc": 536,
      "ĠJ": 537,
      "ition": 538,
      "Ġad": 539,
      "ple": 540,
      "Ġres": 541,
      "ile": 542,
      "ode": 543,
      "able": 544,
      "ide": 545,
      "orm": 546,
      "ates": 547,
      "Ġbut": 548,
      "du": 549,
      "Ġdo": 550,
      "ack": 551,
      "ence": 552,
      "ĠĠĠĠĠĠĠĠĠĠĠĠĠĠĠĠ": 553,
      "Ġdis": 554,
      "ia": 555,
      "ations": 556,
      "ry": 557,
      "Ġhas": 558,
      "ĠU": 559,
      "ance": 560,
      "put": 561,
      "Ġother": 562,
      "ime": 563,
      "Ġj": 564,
      "Ġme": 565,
      "one": 566,
      "Ġwor": 567,
      "Ġhis": 568,
      "ood": 569,
      "ase": 570,
      "ough": 571,
      "ally": 572,
      "are": 573,
      "Ġone": 574,
      "Ġqu": 575,
      "ip": 576,
      "Ġman": 577,
      "Ġwill": 578,
      "de": 579,
      "ru": 580,
      "Ġwere": 581,
      "Ġmore": 582,
      "Ġso": 583,
      "av": 584,
      "so": 585,
      "ice": 586,
      "ens": 587,
      "ress": 588,
      "ĠĠĠĠĠĠĠĠĠĠĠ": 589,
      "ose": 590,
      "ang": 591,
      "ks": 592,
      "ire": 593,
      "ater": 594,
      "ear": 595,
      "iff": 596,
      "à¤": 597,
      "Ġret": 598,
      "ĠIt": 599,
      "Ġdef": 600,
      "ace": 601,
      "\"\"": 602,
      "ree": 603,
      "port": 604,
      "ely": 605,
      "Ġ'": 606,
      "):": 607,
      "Ġprint": 608,
      "te": 609,
      "ĠK": 610,
      "Ġout": 611,
      "ign": 612,
      "Ġper": 613,
      "ions": 614,
      "con": 615,
      "Ġits": 616,
      "ite": 617,
      "Ġyour": 618,
      "Ġsp": 619,
      "ĠV": 620,
      "aus": 621,
      "Ã©": 622,
      "Ġdes": 623,
      "Ġev": 624,
      "ents": 625,
      "very": 626,
      "Ġpart": 627,
      "Ġnumber": 628,
      "ph": 629,
      "Ġro": 630,
      "Ġfun": 631,
      "Ġup": 632,
      "ub": 633,
      "Ġspe": 634,
      "ish": 635,
      "Ġsc": 636,
      "ict": 637,
      "ake": 638,
      "Ġ`": 639,
      "vel": 640,
      "ory": 641,
      "Ġalso": 642,
      "we": 643,
      "ces": 644,
      "Ġ-": 645,
      "ĠSt": 646,
      "Ġreturn": 647,
      "wo": 648,
      "Ġthem": 649,
      "ne": 650,
      "reat": 651,
      "âĢĿ": 652,
      "ors": 653,
      "....": 654,
      "ep": 655,
      "Ġthere": 656,
      "ok": 657,
      "10": 658,
      "ring": 659,
      "Ġtr": 660,
      "Ġwho": 661,
      "Ġthan": 662,
      "Ġhad": 663,
      "irst": 664,
      "Ġli": 665,
      "Ġcol": 666,
      "Ġag": 667,
      "--------": 668,
      "ata": 669,
      "Ġpre": 670,
      "low": 671,
      "Ġpe": 672,
      "Ġcomm": 673,
      "Ġsy": 674,
      "Ġbeen": 675,
      "ild": 676,
      "form": 677,
      "erm": 678,
      "ange": 679,
      "Ġcomp": 680,
      "here": 681,
      "ove": 682,
      "now": 683,
      "Ġsome": 684,
      "ck": 685,
      "Ġno": 686,
      "Ġbec": 687,
      "Ġdiff": 688,
      "Ġ*": 689,
      "Ġwould": 690,
      "Ġapp": 691,
      "ail": 692,
      "Ġinto": 693,
      "Ġtime": 694,
      "Ġob": 695,
      "âĢĶ": 696,
      "Ġind": 697,
      "Ġfunction": 698,
      "ments": 699,
      "ĠâĢľ": 700,
      "Ġtwo": 701,
      "ious": 702,
      "cul": 703,
      "Ġfe": 704,
      "Ġany": 705,
      "Ġlist": 706,
      "Ġabout": 707,
      "eth": 708,
      "Ġwhen": 709,
      "ext": 710,
      "()": 711,
      "row": 712,
      "Ġmay": 713,
      "Ġself": 714,
      "ays": 715,
      "Ġbl": 716,
      "ert": 717,
      "Ġval": 718,
      "Ġra": 719,
      "ren": 720,
      "ian": 721,
      "Ġ[": 722,
      "rit": 723,
      "ys": 724,
      "ĠThis": 725,
      "ll": 726,
      "Ġform": 727,
      "Ġbet": 728,
      "ft": 729,
      "Ġgen": 730,
      "Ġam": 731,
      "ath": 732,
      "Ġtra": 733,
      "ĠCh": 734,
      "ject": 735,
      "vers": 736,
      "Ġgr": 737,
      "Ġ+": 738,
      "ings": 739,
      ").": 740,
      "Ġcons": 741,
      "Ġthese": 742,
      "ÂłÂł": 743,
      "ause": 744,
      "cre": 745,
      "ual": 746,
      "ied": 747,
      "ople": 748,
      "Ġcode": 749,
      "Ġfirst": 750,
      "ines": 751,
      "Ġsub": 752,
      "che": 753,
      "Ġgo": 754,
      "ons": 755,
      "num": 756,
      "ĠAn": 757,
      "Ġover": 758,
      "Ġthen": 759,
      "Ġele": 760,
      "tern": 761,
      "cess": 762,
      "erv": 763,
      "Ġacc": 764,
      "Ġhow": 765,
      "ram": 766,
      "olog": 767,
      "Ġpos": 768,
      "Ġonly": 769,
      "Ġunder": 770,
      "bers": 771,
      "Ġem": 772,
      "ten": 773,
      "(\"": 774,
      "Ġrec": 775,
      "Ġpo": 776,
      "ise": 777,
      "Ġsuch": 778,
      "les": 779,
      "Ġpr": 780,
      "arg": 781,
      "ob": 782,
      "ific": 783,
      "Ã¤": 784,
      "self": 785,
      "ient": 786,
      "Ġrel": 787,
      ".,": 788,
      "ution": 789,
      "Ġknow": 790,
      "rib": 791,
      "Ġco": 792,
      "Ġnew": 793,
      "Ġspec": 794,
      "ĠY": 795,
      "rough": 796,
      "ov": 797,
      "uch": 798,
      "hat": 799,
      "ink": 800,
      "clud": 801,
      "iss": 802,
      "Ġder": 803,
      "Ġeach": 804,
      "ating": 805,
      "Ġla": 806,
      "its": 807,
      "Ġuse": 808,
      "Ġwork": 809,
      "Ġdiffere": 810,
      "Ġmost": 811,
      "ung": 812,
      "Ġwhat": 813,
      "Ġpeople": 814,
      "Ġ#": 815,
      "ax": 816,
      "lic": 817,
      "Ġte": 818,
      "igh": 819,
      "ĠâĢ¢": 820,
      "Ġatt": 821,
      "ible": 822,
      "Ġact": 823,
      "fter": 824,
      "Ġ\"\"\"": 825,
      "This": 826,
      "dition": 827,
      "Ġfl": 828,
      "Ġcur": 829,
      "),": 830,
      "Ġph": 831,
      "ced": 832,
      "Ġthrough": 833,
      "stem": 834,
      "ark": 835,
      "to": 836,
      "12": 837,
      "print": 838,
      "oth": 839,
      "Ġoff": 840,
      "ick": 841,
      "old": 842,
      "val": 843,
      "ful": 844,
      "rent": 845,
      "Ġsur": 846,
      "Ġrem": 847,
      "ĠUn": 848,
      "Ġour": 849,
      "Ġent": 850,
      "ween": 851,
      "mer": 852,
      "eg": 853,
      "Ġprodu": 854,
      "Ġsa": 855,
      "ook": 856,
      "fore": 857,
      "Ġvar": 858,
      "ade": 859,
      "In": 860,
      "ower": 861,
      "Ġel": 862,
      "resent": 863,
      "Ġstud": 864,
      "**": 865,
      "Ġlike": 866,
      "Ġused": 867,
      "Ġresult": 868,
      "alcul": 869,
      "Ġass": 870,
      "ble": 871,
      "ered": 872,
      "Ġbetween": 873,
      "ative": 874,
      "pos": 875,
      "Ġreg": 876,
      "Ġyear": 877,
      "als": 878,
      "cept": 879,
      "\")": 880,
      "ffect": 881,
      "Ġz": 882,
      "itt": 883,
      "ric": 884,
      "cy": 885,
      "Ġsm": 886,
      "ities": 887,
      "ars": 888,
      "ug": 889,
      "Ġinclud": 890,
      "Ġset": 891,
      "ues": 892,
      "Ġdist": 893,
      "11": 894,
      "ins": 895,
      "Ġi": 896,
      "hed": 897,
      "ular": 898,
      "own": 899,
      "Ġwhere": 900,
      "Ġprov": 901,
      "ont": 902,
      "Ġmany": 903,
      "ures": 904,
      "uring": 905,
      "Ġget": 906,
      "Ġcall": 907,
      "Ġneed": 908,
      "Ġsim": 909,
      "Ġshould": 910,
      "Ġ\\": 911,
      "Ġcount": 912,
      "ond": 913,
      "Ġher": 914,
      "ning": 915,
      "Ġlong": 916,
      "Ġword": 917,
      "Ġgener": 918,
      "ty": 919,
      "Ġchar": 920,
      "ize": 921,
      "Ġinput": 922,
      "Ġmod": 923,
      "oy": 924,
      "wn": 925,
      "ew": 926,
      "Ġke": 927,
      "Ġcould": 928,
      "ited": 929,
      "Ġsystem": 930,
      "Ġrep": 931,
      "Ã¼": 932,
      "ism": 933,
      "20": 934,
      "Ġinter": 935,
      "ĠIf": 936,
      "Ġpers": 937,
      "eng": 938,
      "Ġvery": 939,
      "ract": 940,
      "Ġend": 941,
      "ased": 942,
      "ility": 943,
      "ss": 944,
      "Ġ==": 945,
      "ef": 946,
      "ature": 947,
      "Ġfol": 948,
      "Ġdet": 949,
      "Ġinst": 950,
      "Ġclass": 951,
      "ray": 952,
      "ĠHe": 953,
      "ĠAr": 954,
      "ics": 955,
      "Ġdata": 956,
      "iet": 957,
      "Ġac": 958,
      "ever": 959,
      "Ġche": 960,
      "Ġgiv": 961,
      "Ġty": 962,
      "Ġhim": 963,
      "Ġpol": 964,
      "Ġtrans": 965,
      "Ġdie": 966,
      "arch": 967,
      "15": 968,
      "Ġsame": 969,
      "Ġtak": 970,
      "Ġimport": 971,
      "Ġexam": 972,
      "Ġinf": 973,
      "Ġdifferent": 974,
      "velop": 975,
      "Ġet": 976,
      "ife": 977,
      "pect": 978,
      "Ġmy": 979,
      "ethod": 980,
      "ci": 981,
      "ps": 982,
      "Ġfind": 983,
      "Ġinv": 984,
      "other": 985,
      "Ġcor": 986,
      "the": 987,
      "Ġeven": 988,
      "Ġfact": 989,
      "000": 990,
      "ix": 991,
      "Ġafter": 992,
      "land": 993,
      "Ġfound": 994,
      "omm": 995,
      "Ġbecause": 996,
      "ec": 997,
      "Ġext": 998,
      "get": 999,
      "gan": 1000,
      "Ġund": 1001,
      "def": 1002,
      "ĠĠĠĠĠĠĠĠĠĠĠĠĠĠĠ": 1003,
      "ident": 1004,
      "ock": 1005,
      "Ġagain": 1006,
      "____": 1007,
      "Ġsupp": 1008,
      "Ġusing": 1009,
      "ants": 1010,
      "Ġright": 1011,
      "Ġwell": 1012,
      "ern": 1013,
      "Ġcre": 1014,
      "Ġcurrent": 1015,
      "Ġcar": 1016,
      "erg": 1017,
      "Ġbel": 1018,
      "ale": 1019,
      "ually": 1020,
      "li": 1021,
      "Ġmat": 1022,
      "of": 1023,
      "ts": 1024,
      "Ġmake": 1025,
      "))": 1026,
      "read": 1027,
      "ily": 1028,
      "pro": 1029,
      "acter": 1030,
      "##": 1031,
      "Ġwater": 1032,
      "Ġback": 1033,
      "ctions": 1034,
      "uc": 1035,
      "Ġbeing": 1036,
      "........": 1037,
      "cond": 1038,
      "Ġadd": 1039,
      "ĠEn": 1040,
      "Ġref": 1041,
      "13": 1042,
      "ward": 1043,
      "Ġcent": 1044,
      "Ġexp": 1045,
      "inal": 1046,
      "Ġdoes": 1047,
      "lect": 1048,
      "Ġmade": 1049,
      "Ġwhile": 1050,
      "Ġjust": 1051,
      "\",": 1052,
      "imes": 1053,
      "Ġdec": 1054,
      "ages": 1055,
      "Ġpoint": 1056,
      "air": 1057,
      "ational": 1058,
      "Ġhel": 1059,
      "Ġfollow": 1060,
      "iel": 1061,
      "Ġdevelop": 1062,
      "Ġmethod": 1063,
      "Ġbu": 1064,
      "Ġap": 1065,
      "Ġthose": 1066,
      "Ġsee": 1067,
      "Ġvalue": 1068,
      "Ġway": 1069,
      "Ġdem": 1070,
      "ists": 1071,
      "Ġmuch": 1072,
      "str": 1073,
      "14": 1074,
      "Ġshe": 1075,
      "ural": 1076,
      "number": 1077,
      "('": 1078,
      "ah": 1079,
      "Ġgra": 1080,
      "Ġhigh": 1081,
      "Ġstr": 1082,
      "ting": 1083,
      "iew": 1084,
      "ness": 1085,
      "Ġrequ": 1086,
      "Ġear": 1087,
      "led": 1088,
      "Ġread": 1089,
      "Ġ{": 1090,
      "ather": 1091,
      "16": 1092,
      "arm": 1093,
      "Ġmin": 1094,
      "ically": 1095,
      "ases": 1096,
      "Ġmust": 1097,
      "ody": 1098,
      "Ġstring": 1099,
      "arge": 1100,
      "ran": 1101,
      "Ġperson": 1102,
      "que": 1103,
      "Ġposs": 1104,
      "list": 1105,
      "Ġbo": 1106,
      "Ġsmall": 1107,
      "co": 1108,
      "Ġevery": 1109,
      "ĠPro": 1110,
      "Ġcalcul": 1111,
      "Ġrange": 1112,
      "nce": 1113,
      "Ġsol": 1114,
      "ruct": 1115,
      "ĠAl": 1116,
      "Ġhum": 1117,
      "app": 1118,
      "ined": 1119,
      "Ġpar": 1120,
      "ved": 1121,
      "Ġdep": 1122,
      "alth": 1123,
      "à¥": 1124,
      "Ġprocess": 1125,
      "',": 1126,
      "Ġstate": 1127,
      "vern": 1128,
      "ĠTh": 1129,
      "ĠSe": 1130,
      "Ġhand": 1131,
      "18": 1132,
      "Ġins": 1133,
      "Ġincre": 1134,
      "Ġdi": 1135,
      "Ġeffect": 1136,
      "Ġnumbers": 1137,
      "Ġ$": 1138,
      "ven": 1139,
      "Ġname": 1140,
      "Ġchild": 1141,
      "ier": 1142,
      "aint": 1143,
      "ĠRe": 1144,
      "Ġgiven": 1145,
      "ave": 1146,
      "Ġequ": 1147,
      "Ġtest": 1148,
      "ters": 1149,
      "Ġsign": 1150,
      "Ġocc": 1151,
      "ices": 1152,
      "meric": 1153,
      "Ġbefore": 1154,
      "Ġboth": 1155,
      "ized": 1156,
      "els": 1157,
      "Ġworld": 1158,
      "Ġdire": 1159,
      "Ġown": 1160,
      "ivid": 1161,
      "Ġaut": 1162,
      "Ġstart": 1163,
      "Ġop": 1164,
      "sh": 1165,
      "ator": 1166,
      "Ġprog": 1167,
      "99": 1168,
      "uss": 1169,
      "30": 1170,
      "Ġpass": 1171,
      "Ġcell": 1172,
      "ER": 1173,
      "chn": 1174,
      "Ġmon": 1175,
      "Ġpat": 1176,
      "hes": 1177,
      "Ã¶": 1178,
      "25": 1179,
      "Ġgood": 1180,
      "ves": 1181,
      "Ġshow": 1182,
      "formation": 1183,
      "ute": 1184,
      "ĠFor": 1185,
      "ĠĠĠĠĠ": 1186,
      "name": 1187,
      "Ġer": 1188,
      "ĠZ": 1189,
      "blem": 1190,
      ".\"": 1191,
      "ength": 1192,
      "ield": 1193,
      "17": 1194,
      "Ġcour": 1195,
      "Ġmed": 1196,
      "Ġlife": 1197,
      "ork": 1198,
      "ought": 1199,
      "Ġgl": 1200,
      "Ġcomple": 1201,
      "Ġgreat": 1202,
      "cent": 1203,
      "io": 1204,
      "ince": 1205,
      "Ġexper": 1206,
      "ien": 1207,
      "ĠThey": 1208,
      "und": 1209,
      "Ġdid": 1210,
      "ology": 1211,
      "Ġden": 1212,
      "Ġhelp": 1213,
      "word": 1214,
      "Ġpower": 1215,
      "any": 1216,
      "Ġthree": 1217,
      "ĠWe": 1218,
      "ides": 1219,
      "par": 1220,
      "vent": 1221,
      "Ġuser": 1222,
      "ĠAmeric": 1223,
      "ool": 1224,
      "gen": 1225,
      "ĠBut": 1226,
      "ĠAs": 1227,
      "Ġnow": 1228,
      "Ġgre": 1229,
      "Ġgrou": 1230,
      "ĠâĢĶ": 1231,
      "Ġest": 1232,
      "ull": 1233,
      "Ġlarge": 1234,
      "pr": 1235,
      "min": 1236,
      "for": 1237,
      "cial": 1238,
      "Ġconst": 1239,
      "Ġpartic": 1240,
      "Ġcalled": 1241,
      "19": 1242,
      "Ġless": 1243,
      "gg": 1244,
      "Ġplay": 1245,
      "')": 1246,
      "Ġexpl": 1247,
      "urs": 1248,
      "rop": 1249,
      "Ġx": 1250,
      "Ġsoc": 1251,
      "Ġconsid": 1252,
      "Ġart": 1253,
      "Ġsaid": 1254,
      "Ġmem": 1255,
      "ains": 1256,
      "==": 1257,
      "Ġduring": 1258,
      "Ġfile": 1259,
      "Ġexample": 1260,
      "ets": 1261,
      "Ġtem": 1262,
      "Ġsk": 1263,
      "ral": 1264,
      "ner": 1265,
      "Ġline": 1266,
      "Ġsecond": 1267,
      "hy": 1268,
      "count": 1269,
      "----------------": 1270,
      "me": 1271,
      "Ġtext": 1272,
      "ium": 1273,
      "Ġloc": 1274,
      "man": 1275,
      "Ġappe": 1276,
      "sc": 1277,
      "ption": 1278,
      "Ġbr": 1279,
      "50": 1280,
      "Ġconf": 1281,
      "Ġobject": 1282,
      "Ġsum": 1283,
      "ving": 1284,
      "round": 1285,
      "ird": 1286,
      "Ġoper": 1287,
      "Ġdown": 1288,
      "Ġlet": 1289,
      "uf": 1290,
      "Ġser": 1291,
      "xt": 1292,
      "Ġed": 1293,
      "Ġyears": 1294,
      "Ġ.": 1295,
      "Ġproblem": 1296,
      "âĢĵ": 1297,
      "att": 1298,
      "com": 1299,
      "Ġlo": 1300,
      "Ġcontin": 1301,
      "ertain": 1302,
      "Ġterm": 1303,
      "Ġday": 1304,
      "Ġelse": 1305,
      "ton": 1306,
      "Ġsom": 1307,
      "ON": 1308,
      "ublic": 1309,
      "An": 1310,
      "Ġvis": 1311,
      "ĠInd": 1312,
      "ank": 1313,
      "Ġorder": 1314,
      "Ġav": 1315,
      "Ġsch": 1316,
      "Ġgu": 1317,
      "Ġagainst": 1318,
      "ished": 1319,
      "erest": 1320,
      "ĠHow": 1321,
      "Ġcharacter": 1322,
      "Ġstand": 1323,
      "stand": 1324,
      "ĠĊ": 1325,
      "Ġpop": 1326,
      "ified": 1327,
      "Ġcase": 1328,
      "ĠTr": 1329,
      "Ġwithout": 1330,
      "Ġbody": 1331,
      "Ġquest": 1332,
      "ired": 1333,
      "iction": 1334,
      "Ġmak": 1335,
      "Ġinformation": 1336,
      "Ġcommon": 1337,
      "Ġresp": 1338,
      "Ġver": 1339,
      "Ġlead": 1340,
      "ĠPl": 1341,
      "ouse": 1342,
      "Ġfam": 1343,
      "ãģ": 1344,
      "ior": 1345,
      "Ġsl": 1346,
      "ives": 1347,
      "olution": 1348,
      "oint": 1349,
      "aw": 1350,
      "ĠDe": 1351,
      "Ġhist": 1352,
      "ience": 1353,
      "vernment": 1354,
      "ively": 1355,
      "Ġtake": 1356,
      "ury": 1357,
      "gl": 1358,
      "ffic": 1359,
      "lear": 1360,
      "input": 1361,
      "Ġlevel": 1362,
      "Ġimportant": 1363,
      "ality": 1364,
      "Ġmight": 1365,
      "rain": 1366,
      "aj": 1367,
      "ared": 1368,
      "ÂłÂłÂłÂł": 1369,
      "Ġpresent": 1370,
      "Ġoften": 1371,
      "index": 1372,
      "Ġwithin": 1373,
      "ĠThere": 1374,
      "oss": 1375,
      "Ġlear": 1376,
      "Ġdesc": 1377,
      "Ġcontro": 1378,
      "Ġgrow": 1379,
      "Ġanother": 1380,
      "Ġdisc": 1381,
      "Ġlast": 1382,
      "Ġland": 1383,
      "ason": 1384,
      "not": 1385,
      "ained": 1386,
      "au": 1387,
      "be": 1388,
      "Ġprogram": 1389,
      "Ġcondition": 1390,
      "Ġcap": 1391,
      "ĠEx": 1392,
      "Ġthink": 1393,
      "Ġbre": 1394,
      "Ġstill": 1395,
      "ination": 1396,
      "way": 1397,
      "Ġleft": 1398,
      "ense": 1399,
      "Ġrepresent": 1400,
      "24": 1401,
      "ash": 1402,
      "Ġhead": 1403,
      "ulation": 1404,
      "day": 1405,
      "Ġfil": 1406,
      "Ġallow": 1407,
      ".âĢĿ": 1408,
      "orn": 1409,
      "ential": 1410,
      "raph": 1411,
      "urch": 1412,
      "Ġ<": 1413,
      "Ġwrit": 1414,
      "Ġfood": 1415,
      "less": 1416,
      "Ġlight": 1417,
      "Ġwar": 1418,
      "mat": 1419,
      "ames": 1420,
      "Ġrese": 1421,
      "ision": 1422,
      "Ġes": 1423,
      "iron": 1424,
      "Ġplace": 1425,
      "sw": 1426,
      "Ġlook": 1427,
      "ital": 1428,
      "Ġorgan": 1429,
      "Ġhuman": 1430,
      "ross": 1431,
      "Ġmain": 1432,
      "90": 1433,
      "Ġproper": 1434,
      "Ġserv": 1435,
      "ĠÃ": 1436,
      "ergy": 1437,
      "Ġtakes": 1438,
      "ately": 1439,
      "Ġlaw": 1440,
      "hor": 1441,
      "tal": 1442,
      "Ġelect": 1443,
      "ems": 1444,
      "ĠCon": 1445,
      "Ġimp": 1446,
      "ĠAnd": 1447,
      "Ġwom": 1448,
      "Ġinterest": 1449,
      "Ġmet": 1450,
      "string": 1451,
      "ify": 1452,
      "mb": 1453,
      "...": 1454,
      "angu": 1455,
      "ted": 1456,
      "ae": 1457,
      "text": 1458,
      "Ġtechn": 1459,
      "Ġcommun": 1460,
      "ĠNew": 1461,
      "ploy": 1462,
      "ee": 1463,
      "\"\"\"": 1464,
      "ividual": 1465,
      "iod": 1466,
      "Ġwant": 1467,
      "den": 1468,
      "aining": 1469,
      "II": 1470,
      "oh": 1471,
      "Ġdirect": 1472,
      "Ġbas": 1473,
      "23": 1474,
      "Ġknown": 1475,
      "Ġplan": 1476,
      "Ġbeh": 1477,
      "40": 1478,
      "Ġhere": 1479,
      "arent": 1480,
      "IN": 1481,
      "bo": 1482,
      "Ġorig": 1483,
      "Ġmen": 1484,
      "Ġadv": 1485,
      "eral": 1486,
      "ries": 1487,
      "ization": 1488,
      "Ġamount": 1489,
      "aim": 1490,
      "Ġdesign": 1491,
      "Ġtyp": 1492,
      "ÂłĊ": 1493,
      "ron": 1494,
      "uro": 1495,
      "ĠSp": 1496,
      "Ġhealth": 1497,
      "Ġide": 1498,
      "ches": 1499,
      "iety": 1500,
      "ration": 1501,
      "Ġsay": 1502,
      "ression": 1503,
      "Ġopen": 1504,
      "ivers": 1505,
      "outh": 1506,
      "Ġ/": 1507,
      "Ġanim": 1508,
      "ither": 1509,
      "ĠAt": 1510,
      "Ġfre": 1511,
      "irc": 1512,
      "ples": 1513,
      "22": 1514,
      "Ġpossible": 1515,
      "Ġpres": 1516,
      "Ġmove": 1517,
      "Ġincluding": 1518,
      "100": 1519,
      "ik": 1520,
      "Ġfew": 1521,
      "play": 1522,
      "Ġcertain": 1523,
      "ats": 1524,
      "cur": 1525,
      "Ġaround": 1526,
      "Ġbelie": 1527,
      "Ġhy": 1528,
      "data": 1529,
      "Ġwords": 1530,
      "Ġupon": 1531,
      "Ġein": 1532,
      "imum": 1533,
      "hip": 1534,
      "Ġappro": 1535,
      "Ġdeterm": 1536,
      "let": 1537,
      "Ġmean": 1538,
      "ĠĠĠĠĠĠ": 1539,
      "Ġbased": 1540,
      "Ġvon": 1541,
      "itive": 1542,
      "ittle": 1543,
      "Ġsort": 1544,
      "ĠX": 1545,
      "conom": 1546,
      "Ġdon": 1547,
      "alk": 1548,
      "ĠAd": 1549,
      "oid": 1550,
      "az": 1551,
      "Ġbuild": 1552,
      "Ġindividual": 1553,
      "by": 1554,
      "Ġarg": 1555,
      "Ġchange": 1556,
      "aterial": 1557,
      "Ġdefines": 1558,
      "ole": 1559,
      "Ġchang": 1560,
      "Ġlim": 1561,
      "ror": 1562,
      "Ġprints": 1563,
      "Ġwhe": 1564,
      "Ġmeans": 1565,
      "year": 1566,
      "med": 1567,
      "Ġtotal": 1568,
      "Ġold": 1569,
      "ances": 1570,
      "Ġtype": 1571,
      "ĠQ": 1572,
      "Ġmult": 1573,
      "ape": 1574,
      "til": 1575,
      "ably": 1576,
      "ĠIs": 1577,
      "Ġperform": 1578,
      "yl": 1579,
      "ĠYou": 1580,
      "Ġproduct": 1581,
      "Ġvari": 1582,
      "ES": 1583,
      "ways": 1584,
      "Ġgroup": 1585,
      "Ġfore": 1586,
      "ived": 1587,
      "aring": 1588,
      "Ġinteg": 1589,
      "Ġcaus": 1590,
      "ering": 1591,
      "AT": 1592,
      "col": 1593,
      "En": 1594,
      "ilar": 1595,
      "60": 1596,
      "Ġmus": 1597,
      "ule": 1598,
      "Ġeas": 1599,
      "Ġvarious": 1600,
      "ann": 1601,
      "Ġfollowing": 1602,
      "ĠStates": 1603,
      "Ġposition": 1604,
      "ention": 1605,
      "98": 1606,
      "Ġnat": 1607,
      "andom": 1608,
      "Ġtoo": 1609,
      "Ġve": 1610,
      "Ġphys": 1611,
      ",\"": 1612,
      "raw": 1613,
      "ently": 1614,
      "28": 1615,
      "Ġbest": 1616,
      "ĠPh": 1617,
      "ĠBe": 1618,
      "Ġunderstand": 1619,
      "Ġleg": 1620,
      "Ġrun": 1621,
      "ised": 1622,
      "It": 1623,
      "ians": 1624,
      "Ġsupport": 1625,
      "ument": 1626,
      "ĠUnited": 1627,
      "atic": 1628,
      "Ġinc": 1629,
      "ĠSch": 1630,
      "Ġkey": 1631,
      "Ġ+=": 1632,
      "agn": 1633,
      "Ġ>": 1634,
      "ina": 1635,
      "vious": 1636,
      "sel": 1637,
      "Ġdel": 1638,
      "ability": 1639,
      "Ġreal": 1640,
      "Ġtri": 1641,
      "idence": 1642,
      "ĠCom": 1643,
      "Ġmax": 1644,
      "ĠSh": 1645,
      "ccess": 1646,
      "Ġredu": 1647,
      "Ġarea": 1648,
      "orth": 1649,
      "ĠâĢĵ": 1650,
      "iter": 1651,
      "eb": 1652,
      "ery": 1653,
      "Äģ": 1654,
      "Ġactiv": 1655,
      "ead": 1656,
      "Ġlarg": 1657,
      "ĠâĢĺ": 1658,
      "Ġperiod": 1659,
      "iness": 1660,
      "face": 1661,
      "Ġlab": 1662,
      "Ġsing": 1663,
      "Ġview": 1664,
      "Ġlangu": 1665,
      "Ġmark": 1666,
      "ĠThese": 1667,
      "Ġwhite": 1668,
      "Ġsever": 1669,
      "Ġnon": 1670,
      "icht": 1671,
      "chen": 1672,
      "Ġpri": 1673,
      "Ġ&": 1674,
      "ĠWhen": 1675,
      "ique": 1676,
      "What": 1677,
      "Ġmeas": 1678,
      "lu": 1679,
      "Ġnext": 1680,
      "Ġbeg": 1681,
      "Ġopp": 1682,
      "Ġstruct": 1683,
      "ency": 1684,
      "bs": 1685,
      "Ġenergy": 1686,
      "EN": 1687,
      "27": 1688,
      "Ġcost": 1689,
      "Ġlittle": 1690,
      "Ġ__": 1691,
      "rect": 1692,
      "ource": 1693,
      "umn": 1694,
      "ots": 1695,
      "Ġtreat": 1696,
      "ording": 1697,
      "Ġvol": 1698,
      "Ġside": 1699,
      "Ġabove": 1700,
      "line": 1701,
      "lo": 1702,
      ".)": 1703,
      "viron": 1704,
      "ote": 1705,
      "AN": 1706,
      "ining": 1707,
      "oms": 1708,
      "Ã¨": 1709,
      "Ġturn": 1710,
      "Ġchildren": 1711,
      "Ġspecies": 1712,
      "Ġmaterial": 1713,
      "icle": 1714,
      "21": 1715,
      "Ġstudy": 1716,
      "class": 1717,
      "value": 1718,
      "ĠCl": 1719,
      "26": 1720,
      "inary": 1721,
      "alse": 1722,
      "Ġarray": 1723,
      "Ġrest": 1724,
      "oci": 1725,
      "St": 1726,
      "OR": 1727,
      "Ġthings": 1728,
      "Ġfin": 1729,
      "ene": 1730,
      "Ġident": 1731,
      "Ġfour": 1732,
      "Ġhapp": 1733,
      "ling": 1734,
      "Ġvalues": 1735,
      "Ġlength": 1736,
      "une": 1737,
      "Ġcountry": 1738,
      "Ġuntil": 1739,
      "cer": 1740,
      "Ġexist": 1741,
      "Ġcr": 1742,
      "arget": 1743,
      "Ġnear": 1744,
      "Ġpublic": 1745,
      "ends": 1746,
      "yn": 1747,
      "duct": 1748,
      "Ġlow": 1749,
      "Ġprob": 1750,
      "Ġprof": 1751,
      "Ġ**": 1752,
      "Ġpost": 1753,
      "node": 1754,
      "upp": 1755,
      "97": 1756,
      "ended": 1757,
      "Ġpay": 1758,
      "my": 1759,
      "amp": 1760,
      "Ġpract": 1761,
      "Ġseveral": 1762,
      "Ġelements": 1763,
      "Ġfar": 1764,
      "Ġgovernment": 1765,
      "right": 1766,
      "AR": 1767,
      "Ġsince": 1768,
      "Ġclaim": 1769,
      "Ġpur": 1770,
      "cing": 1771,
      "ending": 1772,
      "Ġobs": 1773,
      "Ġair": 1774,
      "Ġdev": 1775,
      "Ġtop": 1776,
      "Ġcontrol": 1777,
      "apt": 1778,
      "Ġanal": 1779,
      "Ġuses": 1780,
      "ured": 1781,
      "aps": 1782,
      "verse": 1783,
      "fe": 1784,
      "Ġrad": 1785,
      "pre": 1786,
      "Ġrece": 1787,
      "Ġpa": 1788,
      "Ġreturns": 1789,
      "ission": 1790,
      "Ġnode": 1791,
      "ajor": 1792,
      "Ġprot": 1793,
      "Ġblack": 1794,
      "Ġblood": 1795,
      "ĠComm": 1796,
      "import": 1797,
      "####": 1798,
      "Ġkeep": 1799,
      "numbers": 1800,
      "Ġeng": 1801,
      "Ġris": 1802,
      "plic": 1803,
      "Ġelement": 1804,
      "Ġmil": 1805,
      "Ġshort": 1806,
      "Ġeconom": 1807,
      "aces": 1808,
      "Ġcho": 1809,
      "Ġbecome": 1810,
      "Ġcomput": 1811,
      "Ġquestion": 1812,
      "rist": 1813,
      "Ġparticular": 1814,
      "urther": 1815,
      "ological": 1816,
      "Ġcult": 1817,
      "Ġ:": 1818,
      "Ġhig": 1819,
      "ided": 1820,
      "Ġred": 1821,
      "Ġà¤": 1822,
      "ym": 1823,
      "Ġbro": 1824,
      "ental": 1825,
      "ĠOn": 1826,
      "________": 1827,
      "ĠWhat": 1828,
      "ĠOr": 1829,
      "ush": 1830,
      "Ġsit": 1831,
      "cks": 1832,
      "ething": 1833,
      "oung": 1834,
      "Ġcolor": 1835,
      "Ġreport": 1836,
      "Ġpot": 1837,
      "Ġfield": 1838,
      "Ġcome": 1839,
      "Ġbetter": 1840,
      "Ġcause": 1841,
      "inter": 1842,
      "Ġlater": 1843,
      "ĠAmerican": 1844,
      "Ġnecess": 1845,
      "por": 1846,
      "ĠWh": 1847,
      "ze": 1848,
      "93": 1849,
      "Ġsocial": 1850,
      "Ġhowever": 1851,
      "Ġiss": 1852,
      "Ġmar": 1853,
      "eter": 1854,
      "Ġant": 1855,
      "alf": 1856,
      "Ġansw": 1857,
      "from": 1858,
      "ĠTo": 1859,
      "ards": 1860,
      "Ġmov": 1861,
      "Ġdise": 1862,
      "ours": 1863,
      "itial": 1864,
      "Ġsw": 1865,
      "Ġdig": 1866,
      "Ġcomb": 1867,
      "Ġreason": 1868,
      "Ġsent": 1869,
      "Ġdiv": 1870,
      "set": 1871,
      "................": 1872,
      "Ġtre": 1873,
      "ĠBrit": 1874,
      "Ġcells": 1875,
      "ories": 1876,
      "':": 1877,
      "append": 1878,
      "Ġnever": 1879,
      "94": 1880,
      "\".": 1881,
      "Ġput": 1882,
      "ids": 1883,
      "vironment": 1884,
      "Ġque": 1885,
      "gs": 1886,
      "ison": 1887,
      "Ġprom": 1888,
      "yth": 1889,
      "Ġage": 1890,
      "Ġlen": 1891,
      "Ġmot": 1892,
      "ional": 1893,
      "Ġfr": 1894,
      "ĠHowever": 1895,
      "Ġles": 1896,
      "imate": 1897,
      "most": 1898,
      "Ġcare": 1899,
      "verage": 1900,
      "oney": 1901,
      "ĠNo": 1902,
      "Ġsimilar": 1903,
      "aut": 1904,
      "Ġgeneral": 1905,
      "Ġindic": 1906,
      "Ġothers": 1907,
      "ius": 1908,
      "Ġlik": 1909,
      "Ġshall": 1910,
      "Ġtemper": 1911,
      "erence": 1912,
      "ĠCol": 1913,
      "wh": 1914,
      "Ġflow": 1915,
      "Ġalways": 1916,
      "Ġable": 1917,
      "Ġemploy": 1918,
      "Ġabs": 1919,
      "Ġwhether": 1920,
      "Ġtimes": 1921,
      "erc": 1922,
      "sequ": 1923,
      "Ġdue": 1924,
      "iving": 1925,
      "Ġhard": 1926,
      "Ġsize": 1927,
      "Ġtry": 1928,
      "Ġschool": 1929,
      "Ġresults": 1930,
      "Ġstudents": 1931,
      "Ġrow": 1932,
      "ott": 1933,
      "Ġspace": 1934,
      "Ġoccur": 1935,
      "ĠÂ": 1936,
      "ĠLe": 1937,
      "eren": 1938,
      "Ġclear": 1939,
      "''": 1940,
      "Ġpress": 1941,
      "though": 1942,
      "Ġsubject": 1943,
      "utes": 1944,
      "Ġsomething": 1945,
      "rix": 1946,
      "bt": 1947,
      "Ġamong": 1948,
      "urope": 1949,
      "etic": 1950,
      "br": 1951,
      "à¥į": 1952,
      "ĠRet": 1953,
      "empt": 1954,
      "Ġaddition": 1955,
      "Ġspecific": 1956,
      "Ġindex": 1957,
      "osed": 1958,
      "Ġdu": 1959,
      "ox": 1960,
      "Ġsuccess": 1961,
      "Ġbus": 1962,
      "amm": 1963,
      "Ġill": 1964,
      "ele": 1965,
      "Ġaccount": 1966,
      "âĢľ": 1967,
      "ograph": 1968,
      "ales": 1969,
      "AL": 1970,
      "sum": 1971,
      "gether": 1972,
      "IS": 1973,
      "Ġauthor": 1974,
      "Ġtogether": 1975,
      "ogn": 1976,
      "osp": 1977,
      "cher": 1978,
      "ables": 1979,
      "Ġdescrib": 1980,
      "Ġeither": 1981,
      "aves": 1982,
      "ĠMr": 1983,
      "cle": 1984,
      "Ġimage": 1985,
      "Ġconsider": 1986,
      "ones": 1987,
      "Ġinvol": 1988,
      "Ġwind": 1989,
      "88": 1990,
      "Ġcreate": 1991,
      "Ġhistory": 1992,
      "icult": 1993,
      "ĠSo": 1994,
      "Ġfig": 1995,
      "Ġthought": 1996,
      "ript": 1997,
      "Ġgive": 1998,
      "Ġmonth": 1999,
      "Ġalong": 2000,
      "Ġben": 2001,
      "ources": 2002,
      "Ġbreak": 2003,
      "Ġrecord": 2004,
      "Ġrev": 2005,
      "Ġkind": 2006,
      "Ġmajor": 2007,
      "Ġey": 2008,
      "ĠGo": 2009,
      "Ġdevelopment": 2010,
      "Ġpolit": 2011,
      "Ġfeel": 2012,
      "nect": 2013,
      "Ġmid": 2014,
      "wise": 2015,
      "95": 2016,
      "Ġlanguage": 2017,
      "Ġmit": 2018,
      "Ġsingle": 2019,
      "Ġmulti": 2020,
      "Ġgame": 2021,
      "work": 2022,
      "ges": 2023,
      "pecial": 2024,
      "Ġusually": 2025,
      "Ġiter": 2026,
      "Ġleast": 2027,
      "Ġtarget": 2028,
      "Ġwr": 2029,
      "Ġyoung": 2030,
      "Ġcannot": 2031,
      "glish": 2032,
      "ĠTrue": 2033,
      "Ġenc": 2034,
      "onstr": 2035,
      "enn": 2036,
      "dle": 2037,
      "abl": 2038,
      "ĠNone": 2039,
      "ĠAll": 2040,
      "Ġthough": 2041,
      "Ġpattern": 2042,
      "ED": 2043,
      "file": 2044,
      "Ġbi": 2045,
      "96": 2046,
      "33": 2047,
      "Ġnatural": 2048,
      "Ġsugg": 2049,
      "iversity": 2050,
      "sp": 2051,
      "sy": 2052,
      "Ġsuggest": 2053,
      "rodu": 2054,
      "Ġhome": 2055,
      "aster": 2056,
      "ĠĠĠĠĠĠĠĠĠĠĠĠĠĠĠĠĠĠĠ": 2057,
      "ĠEurope": 2058,
      "Ġsimple": 2059,
      "selves": 2060,
      "Ġearly": 2061,
      "Ġfunctions": 2062,
      "ek": 2063,
      "alt": 2064,
      "Ġwhole": 2065,
      "Ġinclude": 2066,
      "ĠBl": 2067,
      "Ġpath": 2068,
      "Ġport": 2069,
      "Ġcourse": 2070,
      "illion": 2071,
      "itud": 2072,
      "Ġmess": 2073,
      "Ġsurface": 2074,
      "Ġwhy": 2075,
      "hr": 2076,
      "Ġtree": 2077,
      "ĠSc": 2078,
      "ground": 2079,
      "Ġ%": 2080,
      "ailable": 2081,
      "Ġhaving": 2082,
      "ief": 2083,
      "Ġsepar": 2084,
      "How": 2085,
      "vert": 2086,
      "Ġseen": 2087,
      "ateg": 2088,
      "ane": 2089,
      "Ġlearn": 2090,
      "mon": 2091,
      "Ġoffic": 2092,
      "Ġnorm": 2093,
      "Ġask": 2094,
      "Ġcirc": 2095,
      "Ġlower": 2096,
      "Ġresearch": 2097,
      "Ġenvironment": 2098,
      "thing": 2099,
      "Ġfamily": 2100,
      "Ġfree": 2101,
      "ume": 2102,
      "Ġdifficult": 2103,
      "ii": 2104,
      "side": 2105,
      "ĠGerm": 2106,
      "ware": 2107,
      "init": 2108,
      "iol": 2109,
      "af": 2110,
      "ask": 2111,
      "fficient": 2112,
      "Ġimpro": 2113,
      "ored": 2114,
      "If": 2115,
      "Ġcreat": 2116,
      "Ġhold": 2117,
      "ictionary": 2118,
      "Ġrandom": 2119,
      "Ġconditions": 2120,
      "ires": 2121,
      "Ġitself": 2122,
      "atures": 2123,
      "wards": 2124,
      "ms": 2125,
      "ready": 2126,
      "ctor": 2127,
      "ands": 2128,
      "ython": 2129,
      "35": 2130,
      "Enter": 2131,
      "Ġstrong": 2132,
      "Ġscient": 2133,
      "Ġcheck": 2134,
      "Ġsays": 2135,
      "use": 2136,
      "ĠRes": 2137,
      "Ch": 2138,
      "Ġrather": 2139,
      "Ġapplic": 2140,
      "Ġstep": 2141,
      "ĠThat": 2142,
      "AS": 2143,
      "Ġobserv": 2144,
      "Ġsuper": 2145,
      "Ġdemonstr": 2146,
      "Ġexcept": 2147,
      "uments": 2148,
      "rem": 2149,
      "ohn": 2150,
      "istic": 2151,
      "time": 2152,
      "Ġprin": 2153,
      "Ġcases": 2154,
      "Ġenough": 2155,
      "son": 2156,
      "lease": 2157,
      "icro": 2158,
      "Ġcalculate": 2159,
      "Ġpred": 2160,
      "Ġmaking": 2161,
      "IT": 2162,
      ",âĢĿ": 2163,
      "gr": 2164,
      "Ġfrequ": 2165,
      "odes": 2166,
      "order": 2167,
      "Ġaffect": 2168,
      "80": 2169,
      "Ġmind": 2170,
      "ĠGod": 2171,
      "acters": 2172,
      "Ġweight": 2173,
      "Ġaction": 2174,
      "years": 2175,
      "aced": 2176,
      "ged": 2177,
      "atter": 2178,
      "ĠÃł": 2179,
      "ules": 2180,
      "Ġindust": 2181,
      "Ġdri": 2182,
      "atch": 2183,
      "ope": 2184,
      "len": 2185,
      "Ġfail": 2186,
      "Ġflo": 2187,
      "ued": 2188,
      "ĠEnglish": 2189,
      "Ġspecial": 2190,
      "rad": 2191,
      "29": 2192,
      "Ġaway": 2193,
      "ember": 2194,
      "Ġlikely": 2195,
      "ibr": 2196,
      "ledge": 2197,
      "Ġbegin": 2198,
      "Ġvers": 2199,
      "Ġalready": 2200,
      "ceed": 2201,
      "Ġevidence": 2202,
      "fer": 2203,
      "Ġfull": 2204,
      "Ġtaken": 2205,
      "ills": 2206,
      "45": 2207,
      "ences": 2208,
      "Ġmass": 2209,
      "array": 2210,
      "Ġmethods": 2211,
      "rown": 2212,
      "Ġprovide": 2213,
      "Ġprim": 2214,
      "ux": 2215,
      "Ġprote": 2216,
      "IC": 2217,
      "hing": 2218,
      "ification": 2219,
      "Ġimm": 2220,
      "oks": 2221,
      "Ġassoci": 2222,
      "bl": 2223,
      "Ġwomen": 2224,
      "Ġsubst": 2225,
      "Ġinvest": 2226,
      "Ġdest": 2227,
      "position": 2228,
      "asing": 2229,
      "ĠChrist": 2230,
      "Ġess": 2231,
      "urns": 2232,
      "ĠCan": 2233,
      "Ġdr": 2234,
      "Ġlog": 2235,
      "fl": 2236,
      "lection": 2237,
      "As": 2238,
      "Ġge": 2239,
      "reg": 2240,
      "ÃŁ": 2241,
      "ĠGen": 2242,
      "Ġlink": 2243,
      "à¤¾": 2244,
      "Ġfurther": 2245,
      "Ġcity": 2246,
      "\":": 2247,
      "oot": 2248,
      "Ġplant": 2249,
      "Ġsignific": 2250,
      "Ġimple": 2251,
      "Ġavailable": 2252,
      "Ġvir": 2253,
      "omes": 2254,
      "Ġlay": 2255,
      "ounds": 2256,
      "Ġheart": 2257,
      "tle": 2258,
      "Ġrate": 2259,
      "ators": 2260,
      "left": 2261,
      "Ġaccess": 2262,
      "Ġdone": 2263,
      "You": 2264,
      "Ġgoing": 2265,
      "Ġbenef": 2266,
      "with": 2267,
      "*,": 2268,
      "inally": 2269,
      "Ġtrue": 2270,
      "Ġdeath": 2271,
      "There": 2272,
      "Ġbrain": 2273,
      "mm": 2274,
      "ait": 2275,
      "Ġtw": 2276,
      "36": 2277,
      "aintiff": 2278,
      "ãĤ": 2279,
      "Ġnet": 2280,
      "87": 2281,
      "Ġexpect": 2282,
      "Ġnature": 2283,
      "():": 2284,
      "action": 2285,
      "Ġintern": 2286,
      "ley": 2287,
      "add": 2288,
      "Ġsens": 2289,
      "itution": 2290,
      "ĠChe": 2291,
      "Ġstat": 2292,
      "Â°": 2293,
      "We": 2294,
      "Ġgreen": 2295,
      "Ġzu": 2296,
      "Ġelif": 2297,
      "etimes": 2298,
      "Ġcentury": 2299,
      "Ġonce": 2300,
      "Ġmoney": 2301,
      "Ġinde": 2302,
      "Ġentire": 2303,
      "oon": 2304,
      "Ġstre": 2305,
      "Ġincrease": 2306,
      "Ġmodel": 2307,
      "Ġsqu": 2308,
      "Ġmatter": 2309,
      "oph": 2310,
      "Ġ[]": 2311,
      ".[": 2312,
      "Ġpast": 2313,
      "Ġchanges": 2314,
      "arth": 2315,
      "ilt": 2316,
      "ores": 2317,
      "head": 2318,
      "Ġcourt": 2319,
      "Ġpain": 2320,
      "Ġsearch": 2321,
      "Ġhigher": 2322,
      "Ġprevious": 2323,
      "Ġfall": 2324,
      "Ġtypes": 2325,
      "Ġestabl": 2326,
      "Ġconc": 2327,
      "Ġreally": 2328,
      "Ġinflu": 2329,
      "Ġbehav": 2330,
      "Ġbusiness": 2331,
      "ĠAb": 2332,
      "Ġbook": 2333,
      "ĠAm": 2334,
      "Ġpopulation": 2335,
      "Ġmakes": 2336,
      "ĠUS": 2337,
      "Ġlocal": 2338,
      "Ġdisease": 2339,
      "oll": 2340,
      "Ġcame": 2341,
      "Ġneg": 2342,
      "Ġevent": 2343,
      "Ġbelow": 2344,
      "Ġparent": 2345,
      "Ġstructure": 2346,
      "uture": 2347,
      "Ġcolumn": 2348,
      "Ġdays": 2349,
      "Ġdiscuss": 2350,
      "ger": 2351,
      "illed": 2352,
      "ection": 2353,
      "rap": 2354,
      "elt": 2355,
      "uation": 2356,
      "Ġroot": 2357,
      "imal": 2358,
      "Th": 2359,
      "Ġeduc": 2360,
      "Ã¤n": 2361,
      "Ġthemselves": 2362,
      "ĠĠĠĠĠĠĠĠĠ": 2363,
      "Ġist": 2364,
      "Ġrespect": 2365,
      "ites": 2366,
      "Ġanswer": 2367,
      "pecially": 2368,
      "HE": 2369,
      "Ġmodern": 2370,
      "aug": 2371,
      "ample": 2372,
      "Ġhouse": 2373,
      "37": 2374,
      "Ġcy": 2375,
      "ump": 2376,
      "====": 2377,
      "ruction": 2378,
      "Ġenter": 2379,
      "ipp": 2380,
      "ried": 2381,
      "endant": 2382,
      "ĠII": 2383,
      "Ġcorrect": 2384,
      "__(": 2385,
      "ched": 2386,
      "Ġbecame": 2387,
      "Ġoriginal": 2388,
      "ma": 2389,
      "Ġtable": 2390,
      "Ġproblems": 2391,
      "Ġdam": 2392,
      "ĠPar": 2393,
      "Ġsequ": 2394,
      "overed": 2395,
      "place": 2396,
      "Ġrelig": 2397,
      "clus": 2398,
      "new": 2399,
      "Ġoutput": 2400,
      "ĠFalse": 2401,
      "ened": 2402,
      "Ġappear": 2403,
      "resp": 2404,
      "ubl": 2405,
      "Ġdou": 2406,
      "Ġmor": 2407,
      "Ġut": 2408,
      "Ġgreater": 2409,
      "Ġcalculates": 2410,
      "Ġnecessary": 2411,
      "Ġrelations": 2412,
      "orld": 2413,
      "Ġdetail": 2414,
      "ĠAf": 2415,
      "mp": 2416,
      "Ġdisplay": 2417,
      "Ġsource": 2418,
      "Ġdom": 2419,
      "For": 2420,
      "34": 2421,
      "ION": 2422,
      "iation": 2423,
      "bon": 2424,
      "ivil": 2425,
      "ĠWar": 2426,
      "opy": 2427,
      "Ġsun": 2428,
      "like": 2429,
      "Ġparts": 2430,
      "ĠUniversity": 2431,
      "Ġfri": 2432,
      "ĠSoc": 2433,
      "itted": 2434,
      "ops": 2435,
      "dom": 2436,
      "alculate": 2437,
      "ĠDef": 2438,
      "Ġhalf": 2439,
      "ler": 2440,
      "Ġregard": 2441,
      "Ġsurround": 2442,
      "Ġyet": 2443,
      "pend": 2444,
      "men": 2445,
      "Ġord": 2446,
      "Ġrequired": 2447,
      "ĠPr": 2448,
      "ĠDr": 2449,
      "Ġri": 2450,
      "ĠOne": 2451,
      "aking": 2452,
      "])": 2453,
      "Ġconsidered": 2454,
      "Ġworks": 2455,
      "rie": 2456,
      "istance": 2457,
      "Ġprevent": 2458,
      "ients": 2459,
      "Ġrequire": 2460,
      "Ġauf": 2461,
      "Ġalmost": 2462,
      "igen": 2463,
      "over": 2464,
      "ĠGe": 2465,
      "leep": 2466,
      "Ġcomplex": 2467,
      "ips": 2468,
      "Ġwid": 2469,
      "Ġrisk": 2470,
      "Ġsystems": 2471,
      "Ġconcept": 2472,
      "Ġactually": 2473,
      "Ġchem": 2474,
      "next": 2475,
      "ĠBy": 2476,
      "rel": 2477,
      "Ġaddress": 2478,
      "amed": 2479,
      "Ġetc": 2480,
      "ols": 2481,
      "iment": 2482,
      "Ġareas": 2483,
      "ysis": 2484,
      "Ġopt": 2485,
      "Ex": 2486,
      "cies": 2487,
      "Ġtemperature": 2488,
      "atory": 2489,
      "Ġtell": 2490,
      "Ġsat": 2491,
      "ĠAct": 2492,
      "Ġcrit": 2493,
      "Ġter": 2494,
      "Ġproject": 2495,
      "Ġletter": 2496,
      "Ġattack": 2497,
      "ils": 2498,
      ".\"\"\"": 2499,
      "Ġrespons": 2500,
      "Ġanimals": 2501,
      "ising": 2502,
      "Ġjud": 2503,
      "ĠMar": 2504,
      "Ġsich": 2505,
      "posed": 2506,
      "ster": 2507,
      "Ġbase": 2508,
      "Ġaverage": 2509,
      "ĠWith": 2510,
      "85": 2511,
      "Ġinitial": 2512,
      "ds": 2513,
      "ĠEng": 2514,
      "reen": 2515,
      "Ġaff": 2516,
      "ĠCar": 2517,
      "itary": 2518,
      "Ġways": 2519,
      "ĠSome": 2520,
      "length": 2521,
      "Ġfront": 2522,
      "ĠBritish": 2523,
      "cret": 2524,
      "ellow": 2525,
      "utions": 2526,
      "Ġpoints": 2527,
      "lich": 2528,
      "ortun": 2529,
      "Ġknowledge": 2530,
      "Ġwood": 2531,
      "iqu": 2532,
      "Ġsense": 2533,
      "Ġpotential": 2534,
      "rag": 2535,
      "ãĥ": 2536,
      "Ġseem": 2537,
      "86": 2538,
      "Ġremov": 2539,
      "Ġclose": 2540,
      "Ġdies": 2541,
      "ĠGr": 2542,
      "Ġtherefore": 2543,
      "pose": 2544,
      "Ġ\\(": 2545,
      "iles": 2546,
      "ĠFr": 2547,
      "Ġidea": 2548,
      "ai": 2549,
      "Ġhab": 2550,
      "Fig": 2551,
      "Ġbig": 2552,
      "ĠJohn": 2553,
      "ari": 2554,
      "Ġespecially": 2555,
      "ĠFl": 2556,
      "ĠÂł": 2557,
      "Ġforce": 2558,
      "Ġpolitical": 2559,
      "Ġdifference": 2560,
      "Ġsignificant": 2561,
      "Al": 2562,
      "Ġdistance": 2563,
      "ached": 2564,
      "Ġcal": 2565,
      "Ġplants": 2566,
      "Ġexperience": 2567,
      "Ġbar": 2568,
      "ift": 2569,
      "Ġphot": 2570,
      "ula": 2571,
      "aries": 2572,
      "ibility": 2573,
      "Ġfuture": 2574,
      "Ġattempt": 2575,
      "Ġthus": 2576,
      "ming": 2577,
      "acy": 2578,
      "Ġlot": 2579,
      "Ġthing": 2580,
      "point": 2581,
      "Ġobt": 2582,
      "inct": 2583,
      "Ġloss": 2584,
      "ĠState": 2585,
      "To": 2586,
      "medi": 2587,
      "Ġterms": 2588,
      "erson": 2589,
      "Ġequal": 2590,
      "Ġproduction": 2591,
      "Ġfac": 2592,
      "amb": 2593,
      "Ġconnect": 2594,
      "icy": 2595,
      "itle": 2596,
      "ilities": 2597,
      "Ġcountries": 2598,
      "chan": 2599,
      "Ġprotect": 2600,
      "Ġcharacters": 2601,
      "Ġtax": 2602,
      "Ġcoun": 2603,
      "Ġever": 2604,
      "Ġcomputer": 2605,
      "board": 2606,
      "path": 2607,
      "ungen": 2608,
      "Ġglob": 2609,
      "ault": 2610,
      "Ġincludes": 2611,
      "70": 2612,
      "tt": 2613,
      "Ġplayer": 2614,
      "Ġdraw": 2615,
      "Ġtoday": 2616,
      "Ġwall": 2617,
      "itude": 2618,
      "ĠQu": 2619,
      "ĠOF": 2620,
      "Ġlearning": 2621,
      "uted": 2622,
      "Ġstates": 2623,
      "Ġlines": 2624,
      "Ġmessage": 2625,
      "Ġaccept": 2626,
      "ĠShe": 2627,
      "Ġliving": 2628,
      "ĠReturns": 2629,
      "ply": 2630,
      "Ġang": 2631,
      "Ġshown": 2632,
      "erve": 2633,
      "Ġground": 2634,
      "bre": 2635,
      "32": 2636,
      "Ġworking": 2637,
      "ises": 2638,
      "key": 2639,
      "iting": 2640,
      "tr": 2641,
      "airs": 2642,
      "onse": 2643,
      "Ġwoman": 2644,
      "Ġtradition": 2645,
      "Ġdat": 2646,
      "Ġste": 2647,
      "Ġcommand": 2648,
      "lected": 2649,
      "Ġaccording": 2650,
      "Ġphysical": 2651,
      "rench": 2652,
      "na": 2653,
      "oes": 2654,
      "Ġfive": 2655,
      "31": 2656,
      "ĠPer": 2657,
      "Ġrecogn": 2658,
      "part": 2659,
      "ney": 2660,
      "NA": 2661,
      "Ġanc": 2662,
      "itor": 2663,
      "ĠNe": 2664,
      "Ġbei": 2665,
      "Ġstri": 2666,
      "Ġmach": 2667,
      "ustom": 2668,
      "Ġblue": 2669,
      "Ġgroups": 2670,
      "LE": 2671,
      "uff": 2672,
      "char": 2673,
      "Ġvalid": 2674,
      "ocus": 2675,
      "Ġdas": 2676,
      "Ġdecl": 2677,
      "mber": 2678,
      "ĠPol": 2679,
      "ĠCour": 2680,
      "When": 2681,
      "RE": 2682,
      "uel": 2683,
      "Ġson": 2684,
      "Ġeffects": 2685,
      "Ġconsum": 2686,
      "Ġtook": 2687,
      "Ġsure": 2688,
      "cell": 2689,
      "Ġclos": 2690,
      "minist": 2691,
      "ĠĠĊ": 2692,
      "Ġprovides": 2693,
      "Ġaus": 2694,
      "Ġbackground": 2695,
      "Ġmeasure": 2696,
      "ste": 2697,
      "Ġpressure": 2698,
      "Ġbal": 2699,
      "ĠMan": 2700,
      "Ġneeds": 2701,
      "Ġhimself": 2702,
      "ĠCo": 2703,
      "ams": 2704,
      "Ġsil": 2705,
      "Ġcut": 2706,
      "Ġann": 2707,
      "Ġbring": 2708,
      "Ġtheory": 2709,
      "respond": 2710,
      "main": 2711,
      "cont": 2712,
      "Ġmembers": 2713,
      "ament": 2714,
      "Ġgrowth": 2715,
      "cular": 2716,
      "ID": 2717,
      "Ġ^": 2718,
      "yle": 2719,
      "Ġacross": 2720,
      "Ġlevels": 2721,
      "ĠRep": 2722,
      "Ġbuilding": 2723,
      "ĠTe": 2724,
      "Ġcreated": 2725,
      "Ġpaper": 2726,
      "acher": 2727,
      "arr": 2728,
      "size": 2729,
      "ĠIm": 2730,
      "Ġneeded": 2731,
      "angle": 2732,
      "ĠCent": 2733,
      "Ġmaint": 2734,
      "Ġdistrib": 2735,
      "Ġur": 2736,
      "eters": 2737,
      "ĠMed": 2738,
      "ressed": 2739,
      "Ġsuff": 2740,
      "Ġalg": 2741,
      "Ġsolution": 2742,
      "Ġmeet": 2743,
      "sort": 2744,
      "Ġtreatment": 2745,
      "Ġcle": 2746,
      "Ã©s": 2747,
      "Ġlonger": 2748,
      "Ġprobably": 2749,
      "ĠCO": 2750,
      "Ġdark": 2751,
      "Ġmaximum": 2752,
      "Ġdictionary": 2753,
      "ĠVer": 2754,
      "],": 2755,
      "chie": 2756,
      "44": 2757,
      "oice": 2758,
      "Ġnormal": 2759,
      "ĠAmerica": 2760,
      "ĠAfric": 2761,
      "sych": 2762,
      "Ġproperty": 2763,
      "otal": 2764,
      "Ġlive": 2765,
      "ĠIndia": 2766,
      "Ġcommunic": 2767,
      "izes": 2768,
      "And": 2769,
      "ourn": 2770,
      "rate": 2771,
      "lying": 2772,
      "plit": 2773,
      "Ġscience": 2774,
      "ows": 2775,
      "raft": 2776,
      "imens": 2777,
      "Ġforms": 2778,
      "Ġarticle": 2779,
      "Ġdate": 2780,
      "erous": 2781,
      "Ġproduce": 2782,
      "Ġpriv": 2783,
      "Ġsix": 2784,
      "fully": 2785,
      "ha": 2786,
      "ithm": 2787,
      "dig": 2788,
      "())": 2789,
      "ights": 2790,
      "ival": 2791,
      "Ġquant": 2792,
      "unction": 2793,
      "eds": 2794,
      "Ġmeaning": 2795,
      "Ġeff": 2796,
      "ĠSy": 2797,
      "Ġwon": 2798,
      "test": 2799,
      "Ġnames": 2800,
      "ĠÐ": 2801,
      "Ġsometimes": 2802,
      "Ġprovided": 2803,
      "pid": 2804,
      "ĠEarth": 2805,
      "Ġpie": 2806,
      "75": 2807,
      "ares": 2808,
      "Ġboard": 2809,
      "Ġthird": 2810,
      "Ġmicro": 2811,
      "Ġapproach": 2812,
      "Ġstudent": 2813,
      "ĠCal": 2814,
      "Ġsorted": 2815,
      "Ġdoc": 2816,
      "iver": 2817,
      "Ã¼r": 2818,
      "irth": 2819,
      "ĠNorth": 2820,
      "Ġfem": 2821,
      "ederal": 2822,
      "ĠHis": 2823,
      "ender": 2824,
      "words": 2825,
      "Ġens": 2826,
      "ober": 2827,
      "ese": 2828,
      "inn": 2829,
      "Ġearth": 2830,
      "lex": 2831,
      "find": 2832,
      "But": 2833,
      "Ġâ": 2834,
      "Ġdeg": 2835,
      "bit": 2836,
      "Ġgraph": 2837,
      "uth": 2838,
      "38": 2839,
      "Ġsal": 2840,
      "Ġcorrespond": 2841,
      "Ġinteger": 2842,
      "Ġquite": 2843,
      "ben": 2844,
      "Ġactivity": 2845,
      "Ġdeveloped": 2846,
      "Ġstory": 2847,
      "Ġseems": 2848,
      "ĠThen": 2849,
      "view": 2850,
      "ription": 2851,
      "Ġheav": 2852,
      "ĠInst": 2853,
      "iding": 2854,
      "leg": 2855,
      "ening": 2856,
      "Ġface": 2857,
      "Ġbelieve": 2858,
      "gment": 2859,
      "Ġstandard": 2860,
      "Ġprice": 2861,
      "ĠMay": 2862,
      "hib": 2863,
      "fra": 2864,
      "where": 2865,
      "ĠAfter": 2866,
      "current": 2867,
      "Ġgenerally": 2868,
      "Ġcred": 2869,
      "Ġhor": 2870,
      "sub": 2871,
      "Ġimpact": 2872,
      "Ġexec": 2873,
      "Ġeconomic": 2874,
      "Ġwritten": 2875,
      "eration": 2876,
      "ĠCont": 2877,
      "Ġfish": 2878,
      "Ġquick": 2879,
      "ana": 2880,
      "Ġspir": 2881,
      "Ġshows": 2882,
      "Ġeine": 2883,
      "Wh": 2884,
      "Ġfocus": 2885,
      "Ġslow": 2886,
      "akes": 2887,
      "haps": 2888,
      "oup": 2889,
      "Ġrelated": 2890,
      "erate": 2891,
      "Ġrefer": 2892,
      "Ġfav": 2893,
      "ero": 2894,
      "Ġsea": 2895,
      "ĠAss": 2896,
      "Ġnational": 2897,
      "ĠSouth": 2898,
      "Ġemb": 2899,
      "arily": 2900,
      "ĠCourt": 2901,
      "fect": 2902,
      "rame": 2903,
      "itation": 2904,
      "Ã©t": 2905,
      "ĠWorld": 2906,
      "Ġintrodu": 2907,
      "ivity": 2908,
      "aged": 2909,
      "cles": 2910,
      "Ġstop": 2911,
      "ĠĠĠĠĠĠĠĠĠĠĠĠ": 2912,
      "Ġhistor": 2913,
      "Ã¶r": 2914,
      "ĠOther": 2915,
      "Ġdeep": 2916,
      "ordin": 2917,
      "ighb": 2918,
      "Ġfire": 2919,
      "ĠYork": 2920,
      "Ġnothing": 2921,
      "dro": 2922,
      "ĠĠĠĠĠĠĠĠĠĠ": 2923,
      "hel": 2924,
      "ĠMe": 2925,
      "Ġmagn": 2926,
      "Ġcontains": 2927,
      "go": 2928,
      "Ġnight": 2929,
      "`.": 2930,
      "55": 2931,
      "Ġquestions": 2932,
      "apan": 2933,
      "Ġcomes": 2934,
      "Ġpict": 2935,
      "Ġcoll": 2936,
      "ĠRom": 2937,
      "rict": 2938,
      "Ġsimply": 2939,
      "ĠPart": 2940,
      "Ġpp": 2941,
      "Ġseries": 2942,
      "Ġcontrib": 2943,
      "Ġdog": 2944,
      "ĠKing": 2945,
      "Ġgas": 2946,
      "Ġcontinue": 2947,
      "resents": 2948,
      "Ġappl": 2949,
      "itte": 2950,
      "Ġachie": 2951,
      "46": 2952,
      "atively": 2953,
      "Ġir": 2954,
      "Ġcontain": 2955,
      "mpt": 2956,
      "cip": 2957,
      "ĠArgs": 2958,
      "ĠPython": 2959,
      "Ġviol": 2960,
      "uck": 2961,
      "Ġ_": 2962,
      "ĠFrench": 2963,
      "resh": 2964,
      "Ġox": 2965,
      "AC": 2966,
      "attle": 2967,
      "Ġheat": 2968,
      "Ġperm": 2969,
      "Ġbegan": 2970,
      "het": 2971,
      "Ġlarger": 2972,
      "Un": 2973,
      "Ġobjects": 2974,
      "Ġability": 2975,
      "equ": 2976,
      "à¤¤": 2977,
      "Ġtechnology": 2978,
      "Ġsociety": 2979,
      "Ġmechan": 2980,
      "Ġfactors": 2981,
      "izing": 2982,
      "Pro": 2983,
      "Ġcontaining": 2984,
      "Ġflu": 2985,
      "Ġappears": 2986,
      "ony": 2987,
      "Ġmarket": 2988,
      "Ġavoid": 2989,
      "ĠNot": 2990,
      "ST": 2991,
      "upper": 2992,
      "Ġwhose": 2993,
      "Ġcontent": 2994,
      "esc": 2995,
      "Ġroom": 2996,
      "anced": 2997,
      "Ġanimal": 2998,
      "rs": 2999,
      "ĠAg": 3000,
      "Ġresponse": 3001,
      "ĠCre": 3002,
      "47": 3003,
      "RO": 3004,
      "ĠPres": 3005,
      "Ġincreased": 3006,
      "Ġservice": 3007,
      "à¤¿": 3008,
      "Ġconne": 3009,
      "Ġinj": 3010,
      "date": 3011,
      "ĠDis": 3012,
      "Ġ...": 3013,
      "AM": 3014,
      "anks": 3015,
      "Ġconcern": 3016,
      "max": 3017,
      "Ġconduct": 3018,
      "aff": 3019,
      "âĢ¦": 3020,
      "Ġpal": 3021,
      "aving": 3022,
      "Ġrelationship": 3023,
      "rial": 3024,
      "reng": 3025,
      "igation": 3026,
      "icles": 3027,
      "Ġ--": 3028,
      "Ġbasic": 3029,
      "vere": 3030,
      "ding": 3031,
      "illi": 3032,
      "Ã¡": 3033,
      "Ġproducts": 3034,
      "lands": 3035,
      "type": 3036,
      "Ġagree": 3037,
      "ĠRuss": 3038,
      "Ġassociated": 3039,
      "ĠArt": 3040,
      "Ġdans": 3041,
      "uit": 3042,
      "Ġcomplete": 3043,
      "osis": 3044,
      "estern": 3045,
      "Ġengine": 3046,
      "umb": 3047,
      "imin": 3048,
      "Ġregion": 3049,
      "Ġinstead": 3050,
      "och": 3051,
      "Ġsleep": 3052,
      "inition": 3053,
      "Ġguess": 3054,
      "Ġexact": 3055,
      "Ġmount": 3056,
      "ĠSci": 3057,
      "hol": 3058,
      "Ġcapital": 3059,
      "ropri": 3060,
      "Ġtalk": 3061,
      "Ġwel": 3062,
      "Ġimprove": 3063,
      "ischen": 3064,
      "Ġrole": 3065,
      "Ġfa": 3066,
      "Ġpubl": 3067,
      "][": 3068,
      "itting": 3069,
      "Ġsound": 3070,
      "Ġsequence": 3071,
      "`,": 3072,
      "Ġpage": 3073,
      "Ġjob": 3074,
      "Ġprinci": 3075,
      "off": 3076,
      "à¤°": 3077,
      "Ġadj": 3078,
      "Ġspeed": 3079,
      "à¦": 3080,
      "anz": 3081,
      "ÂłÂłÂłÂłÂłÂłÂłÂł": 3082,
      "Ġmovement": 3083,
      "Ġconsist": 3084,
      "Ġeffort": 3085,
      "Ġsoft": 3086,
      "Ġsection": 3087,
      "Ġbit": 3088,
      "ister": 3089,
      "amin": 3090,
      "omen": 3091,
      "Ã¦": 3092,
      "Ġsympt": 3093,
      "gar": 3094,
      "isions": 3095,
      "Ġattrib": 3096,
      "Ġpurpose": 3097,
      "ica": 3098,
      "Ġbott": 3099,
      "Ġalgor": 3100,
      "Ġdetermine": 3101,
      "Ġtaking": 3102,
      "Ġessential": 3103,
      "Ġnuc": 3104,
      "ads": 3105,
      "ĠAust": 3106,
      "ken": 3107,
      "Ġking": 3108,
      "Tr": 3109,
      "ensive": 3110,
      "On": 3111,
      "come": 3112,
      "root": 3113,
      "lev": 3114,
      "yp": 3115,
      "ĠDie": 3116,
      "ĠEd": 3117,
      "Ġinstance": 3118,
      "ĠBr": 3119,
      "first": 3120,
      "Ġcommunity": 3121,
      "ĠGu": 3122,
      "48": 3123,
      "Ġpersonal": 3124,
      "Ġproduced": 3125,
      "500": 3126,
      "Ġheld": 3127,
      "Ġexerc": 3128,
      "Ġpositive": 3129,
      "Ġfarm": 3130,
      "uous": 3131,
      "Ġprofess": 3132,
      "Ġmultiple": 3133,
      "Ġcompany": 3134,
      "Ġnicht": 3135,
      "Ġwent": 3136,
      "Ġdirection": 3137,
      "ĠApp": 3138,
      ".âĢĶ": 3139,
      "range": 3140,
      "Ġdoesn": 3141,
      "Ġmiddle": 3142,
      "ilos": 3143,
      "Ġvariable": 3144,
      "Ġfru": 3145,
      "Ġconver": 3146,
      "Ġcaused": 3147,
      "Ġcat": 3148,
      "Ġsou": 3149,
      "Ġpet": 3150,
      "Ġlinked": 3151,
      ");": 3152,
      "ying": 3153,
      "Ġcauses": 3154,
      "ĠEngland": 3155,
      "undred": 3156,
      "Ġtur": 3157,
      "Ġotherwise": 3158,
      "artment": 3159,
      "Ar": 3160,
      "Ġrepe": 3161,
      "Ġpopular": 3162,
      "ike": 3163,
      "Ġtend": 3164,
      "Ġregular": 3165,
      "Ġfactor": 3166,
      "Ġtrees": 3167,
      "Ġsymb": 3168,
      "########": 3169,
      "ixed": 3170,
      "elling": 3171,
      "Ġcreates": 3172,
      "Ġfast": 3173,
      "Ġnamed": 3174,
      "agement": 3175,
      "Ġmatrix": 3176,
      ":**": 3177,
      "Ġdeal": 3178,
      "rupt": 3179,
      "nd": 3180,
      "Mr": 3181,
      "ĠJapan": 3182,
      "Ġchecks": 3183,
      "mar": 3184,
      "Ġglobal": 3185,
      "Ġimmedi": 3186,
      "rome": 3187,
      "urg": 3188,
      "ests": 3189,
      "Ġadded": 3190,
      "ĠUs": 3191,
      "ND": 3192,
      "Ġdescribed": 3193,
      "ta": 3194,
      "Ġoutside": 3195,
      "ĠDep": 3196,
      "ige": 3197,
      "ĠNational": 3198,
      "lim": 3199,
      "Ġsex": 3200,
      "ĠJew": 3201,
      "Ġbird": 3202,
      "oura": 3203,
      "Ġcalls": 3204,
      "Ġcivil": 3205,
      "Ġchemical": 3206,
      "Ġunderstanding": 3207,
      "Ġrecomm": 3208,
      "Ġmedical": 3209,
      "aching": 3210,
      "Ġheight": 3211,
      "Ġarch": 3212,
      "aches": 3213,
      "Ġmom": 3214,
      "Ġbehavior": 3215,
      "cean": 3216,
      "oud": 3217,
      "Ġdoing": 3218,
      "Ġpen": 3219,
      "Ġcreating": 3220,
      "back": 3221,
      "istics": 3222,
      "Ġcross": 3223,
      "200": 3224,
      "Ġdurch": 3225,
      "Ġ\")": 3226,
      "ama": 3227,
      "He": 3228,
      "ĠDo": 3229,
      "Ġbrought": 3230,
      "ĠInt": 3231,
      "ĠGree": 3232,
      "can": 3233,
      "ili": 3234,
      "Ġcit": 3235,
      "Ġcarbon": 3236,
      "acc": 3237,
      "Ġmilitary": 3238,
      "idge": 3239,
      "Ġprop": 3240,
      "Ġrights": 3241,
      "values": 3242,
      "Ġloop": 3243,
      "ĠMus": 3244,
      "calculate": 3245,
      "Ġnut": 3246,
      "Ġled": 3247,
      "Ġfinal": 3248,
      "chers": 3249,
      "Ġerror": 3250,
      "Ġanalysis": 3251,
      "Ġmention": 3252,
      "aly": 3253,
      "Ġmer": 3254,
      "ogen": 3255,
      "Ġbuilt": 3256,
      "Ġwrite": 3257,
      "Ġunique": 3258,
      "Ġfat": 3259,
      "------": 3260,
      "iber": 3261,
      "IV": 3262,
      "start": 3263,
      "ĠHist": 3264,
      "Ġgold": 3265,
      "Ġindividuals": 3266,
      "Ġce": 3267,
      "Ġcarry": 3268,
      "Ġcompon": 3269,
      "Ġindepend": 3270,
      "ĠPe": 3271,
      ".\")": 3272,
      "percent": 3273,
      "Ġoil": 3274,
      "Ġeducation": 3275,
      "á¹": 3276,
      "Ġmis": 3277,
      "Ġfeed": 3278,
      "Ġspeak": 3279,
      "ira": 3280,
      "oin": 3281,
      "Ġpractice": 3282,
      "Ġincreasing": 3283,
      "Ġful": 3284,
      "Ġdirectly": 3285,
      "Ġblock": 3286,
      "ĠVal": 3287,
      "ls": 3288,
      "ĠFinally": 3289,
      "Ġdru": 3290,
      "Ġexpression": 3291,
      "Ġround": 3292,
      "ecause": 3293,
      "spe": 3294,
      "Ġals": 3295,
      "Ġalthough": 3296,
      "Ġcancer": 3297,
      "Ġitem": 3298,
      "65": 3299,
      "Ġten": 3300,
      "tes": 3301,
      "Ġminimum": 3302,
      "Ġsoon": 3303,
      "Ġliter": 3304,
      "ĠSte": 3305,
      "Ġgot": 3306,
      "Ġstudies": 3307,
      "Ġacid": 3308,
      "Ġsmaller": 3309,
      "Ġconstant": 3310,
      "ulations": 3311,
      "iers": 3312,
      "valid": 3313,
      "ĠÎ": 3314,
      "Er": 3315,
      "ĠHer": 3316,
      "Ġfeatures": 3317,
      "Ġskin": 3318,
      "Ġsurv": 3319,
      "ĠCor": 3320,
      "Ġdemonstrates": 3321,
      "Cl": 3322,
      "UR": 3323,
      "([": 3324,
      "Ġstreng": 3325,
      "astic": 3326,
      "Ġcustom": 3327,
      "result": 3328,
      "Ġchoice": 3329,
      "Ġissue": 3330,
      "ĠBo": 3331,
      "ĠAug": 3332,
      "Ġmemory": 3333,
      "ingu": 3334,
      "Ġbank": 3335,
      "Ġlove": 3336,
      "earch": 3337,
      "asons": 3338,
      "Ġbes": 3339,
      "Ġspread": 3340,
      "Ġlargest": 3341,
      "Ġadminist": 3342,
      "ĠÃ¼": 3343,
      "ades": 3344,
      "lor": 3345,
      "Ġeyes": 3346,
      "rees": 3347,
      "ros": 3348,
      "Ġ!": 3349,
      "rows": 3350,
      "million": 3351,
      "tra": 3352,
      "imately": 3353,
      "dd": 3354,
      "abet": 3355,
      "ino": 3356,
      "Pl": 3357,
      "']": 3358,
      "39": 3359,
      "Ġlack": 3360,
      "Ġsymptoms": 3361,
      "ĠList": 3362,
      "Ġtowards": 3363,
      "Ġanything": 3364,
      "Ġoperations": 3365,
      "Ġago": 3366,
      "Ġlists": 3367,
      "ĠPlaintiff": 3368,
      "Ġwarm": 3369,
      "Re": 3370,
      "Ġsold": 3371,
      "Ġreceived": 3372,
      "Ġda": 3373,
      "So": 3374,
      "pan": 3375,
      "Ġrot": 3376,
      "Ġmedic": 3377,
      "Ġallows": 3378,
      "Ġbur": 3379,
      "Ġbinary": 3380,
      "Ġcontact": 3381,
      "Ġthroughout": 3382,
      "=\"": 3383,
      "Ġbad": 3384,
      "unk": 3385,
      "atives": 3386,
      "Ġweek": 3387,
      "Ġreduce": 3388,
      "//": 3389,
      "Ġwriting": 3390,
      "Ġcard": 3391,
      "Ġcompar": 3392,
      "Ġhands": 3393,
      "ĠStud": 3394,
      "rypt": 3395,
      "light": 3396,
      "used": 3397,
      "Ġparty": 3398,
      "Ġthous": 3399,
      "ret": 3400,
      "Ġball": 3401,
      "Ġillust": 3402,
      "ype": 3403,
      "Ġnetwork": 3404,
      "Ġcir": 3405,
      "Ġnp": 3406,
      "Ġbran": 3407,
      "Ġple": 3408,
      "uk": 3409,
      "Ġlimit": 3410,
      "Ġpolicy": 3411,
      "Ġbecomes": 3412,
      "ĠGerman": 3413,
      "Ġbeginning": 3414,
      "mosp": 3415,
      "Ġbed": 3416,
      "Ġmusic": 3417,
      "Ġeat": 3418,
      "ulate": 3419,
      "Ġhundred": 3420,
      "ension": 3421,
      "Ġcompet": 3422,
      "Ġimplement": 3423,
      "Ġappropri": 3424,
      "ufact": 3425,
      "Ġrule": 3426,
      "Ġimag": 3427,
      "ĠPrint": 3428,
      "Ġsn": 3429,
      "mit": 3430,
      "iven": 3431,
      "Ġdang": 3432,
      "ĠAcc": 3433,
      "Ġdistinct": 3434,
      "irm": 3435,
      "Ġculture": 3436,
      "ties": 3437,
      "Ġtraining": 3438,
      "Ð¾": 3439,
      "room": 3440,
      "Ġformed": 3441,
      "ellig": 3442,
      "Ġrepresents": 3443,
      "Ġstack": 3444,
      "Ġreading": 3445,
      "Ġsurrounded": 3446,
      "Ġresources": 3447,
      "42": 3448,
      "Ġsus": 3449,
      "Ġpoor": 3450,
      "ĠGovernment": 3451,
      "Ġbra": 3452,
      "Ġchall": 3453,
      "Ġlaws": 3454,
      "Ġiterates": 3455,
      "Ġinside": 3456,
      "Ġbacter": 3457,
      "Ġdivid": 3458,
      "apter": 3459,
      "ada": 3460,
      "Ġsquare": 3461,
      "Con": 3462,
      "Ġresear": 3463,
      "ching": 3464,
      "Ġinfluence": 3465,
      "Ġlate": 3466,
      "ĠFig": 3467,
      "Ġcentral": 3468,
      "Le": 3469,
      "Ġmaterials": 3470,
      "Ġstore": 3471,
      "Ġsomeone": 3472,
      "Ġapplication": 3473,
      "Ġmother": 3474,
      "Ġsind": 3475,
      "Ġbehind": 3476,
      "Ġeasy": 3477,
      "Ġearli": 3478,
      "Ġevents": 3479,
      "Ġremain": 3480,
      "aur": 3481,
      "Ġcapt": 3482,
      "iques": 3483,
      "Ġteam": 3484,
      "Ġattention": 3485,
      "Ġtrade": 3486,
      "Ġcolle": 3487,
      "Ġdiet": 3488,
      "Ġoppos": 3489,
      "abor": 3490,
      "Ġeffective": 3491,
      "inks": 3492,
      "Ġ\"))": 3493,
      "Ġconcent": 3494,
      "Ġindustry": 3495,
      "Ġrepresenting": 3496,
      "Ġorigin": 3497,
      "Ġwearing": 3498,
      "='": 3499,
      "Ã¤r": 3500,
      "Ġtown": 3501,
      "Ġeasily": 3502,
      "Ġnegative": 3503,
      "Ġpsych": 3504,
      "ĠTHE": 3505,
      "arv": 3506,
      "ested": 3507,
      "Ġitems": 3508,
      "ĠMy": 3509,
      "lation": 3510,
      "Ġactivities": 3511,
      "elle": 3512,
      "acity": 3513,
      "Ġassum": 3514,
      "EL": 3515,
      "Ġtravel": 3516,
      "irt": 3517,
      "Ġplus": 3518,
      "Ġopin": 3519,
      "ider": 3520,
      "Ġdecre": 3521,
      "Ġteacher": 3522,
      "Ġelectric": 3523,
      "ternal": 3524,
      "Ġaccom": 3525,
      "ĠChar": 3526,
      "Ġlost": 3527,
      "Ġhyp": 3528,
      "ĠSen": 3529,
      "Ġdeb": 3530,
      "ĠSee": 3531,
      "Ġegg": 3532,
      "Ġserious": 3533,
      "Ġeye": 3534,
      "ĠÂ§": 3535,
      "Ġfather": 3536,
      "Ġsituation": 3537,
      "icted": 3538,
      "era": 3539,
      "Ġnach": 3540,
      "Ġexpected": 3541,
      "ĠEr": 3542,
      ".;": 3543,
      "Ġclimate": 3544,
      "ĠPresident": 3545,
      "ĠĠĠĠĠĠĠĠĠĠĠĠĠ": 3546,
      "Ġharm": 3547,
      "Ġcomplet": 3548,
      "Ġneighb": 3549,
      "Ġprec": 3550,
      "cript": 3551,
      "Ġbirth": 3552,
      "uge": 3553,
      "IL": 3554,
      "ondon": 3555,
      "ĠWhile": 3556,
      "zz": 3557,
      "Ġinvolved": 3558,
      "comm": 3559,
      "Ġprompt": 3560,
      "Ġassign": 3561,
      "Ġquality": 3562,
      "oring": 3563,
      "yond": 3564,
      "Ġcover": 3565,
      "Ġofficial": 3566,
      "omb": 3567,
      "Ġancient": 3568,
      "yg": 3569,
      "Ġprime": 3570,
      "ĠComp": 3571,
      "iling": 3572,
      "matrix": 3573,
      "Ġstarting": 3574,
      "Ġexperien": 3575,
      "Ġmole": 3576,
      "Ġfloat": 3577,
      "Ġaccur": 3578,
      "da": 3579,
      "Ġones": 3580,
      "frac": 3581,
      "Ġissues": 3582,
      "Ġauch": 3583,
      "ricult": 3584,
      "ech": 3585,
      "Ġshape": 3586,
      "change": 3587,
      "ĠFran": 3588,
      "uple": 3589,
      "gram": 3590,
      "Ġarguments": 3591,
      "Ġbroad": 3592,
      "Ġpow": 3593,
      "Ġoperation": 3594,
      "Ġgetting": 3595,
      "ĠAnt": 3596,
      "Ġpossess": 3597,
      "ara": 3598,
      "Ġep": 3599,
      "['": 3600,
      "ĠCong": 3601,
      "Ġarri": 3602,
      "CH": 3603,
      "Ġsie": 3604,
      "Ġstatement": 3605,
      "Ġplaced": 3606,
      "Ġexpress": 3607,
      "Error": 3608,
      "ĠIndian": 3609,
      "ING": 3610,
      "Ġhol": 3611,
      "dis": 3612,
      "rite": 3613,
      "Ġplaces": 3614,
      "Ġsoil": 3615,
      "Sh": 3616,
      "Ġatmosp": 3617,
      "Ġdemand": 3618,
      "see": 3619,
      "gu": 3620,
      "Ġrock": 3621,
      "ĠReg": 3622,
      "ĠSm": 3623,
      "Ġrecent": 3624,
      "Ġletters": 3625,
      "isms": 3626,
      "actions": 3627,
      "do": 3628,
      "66": 3629,
      "sec": 3630,
      "Ġbound": 3631,
      "irect": 3632,
      "Ġargument": 3633,
      "._": 3634,
      "Ġadult": 3635,
      "Ġwalk": 3636,
      "ĠCount": 3637,
      "cil": 3638,
      "01": 3639,
      "isf": 3640,
      "ĠMon": 3641,
      "arb": 3642,
      "Ġtiss": 3643,
      "Ġextra": 3644,
      "ĠFrance": 3645,
      "nown": 3646,
      "lin": 3647,
      "that": 3648,
      "CT": 3649,
      "Ġnearly": 3650,
      "rab": 3651,
      "Ġempt": 3652,
      "rated": 3653,
      "Ġfigure": 3654,
      "US": 3655,
      "but": 3656,
      "ĠĠĠĠĠĠĠĠĠĠĠĠĠĠ": 3657,
      "Ġdefined": 3658,
      "}\")": 3659,
      "Ġprior": 3660,
      "Ġexc": 3661,
      "Ġclean": 3662,
      "Ġhumans": 3663,
      "ĠKe": 3664,
      "hest": 3665,
      "Ġalgorithm": 3666,
      "Ġforces": 3667,
      "Ġpublished": 3668,
      "gy": 3669,
      "hood": 3670,
      "ET": 3671,
      "Ġmonths": 3672,
      "Ġgives": 3673,
      "Ġactual": 3674,
      "olar": 3675,
      "Ġmoment": 3676,
      "Ġmotion": 3677,
      "Ġbasis": 3678,
      "Ġvariety": 3679,
      "Ġlimited": 3680,
      "Ġoccup": 3681,
      "Ġopportun": 3682,
      "hemat": 3683,
      "ube": 3684,
      "rast": 3685,
      "Ġdisco": 3686,
      "Ġpassed": 3687,
      "Ġparticularly": 3688,
      "ĠMin": 3689,
      "ENT": 3690,
      "ittee": 3691,
      "pass": 3692,
      "Ġlabor": 3693,
      "Ġservices": 3694,
      "Ġdepend": 3695,
      "Ġfriend": 3696,
      "Ġperhaps": 3697,
      "Ġhot": 3698,
      "ĠChina": 3699,
      "Ġhost": 3700,
      "Ġsaw": 3701,
      "Ġstage": 3702,
      "Ġforest": 3703,
      "sch": 3704,
      "uly": 3705,
      "Ġ,": 3706,
      "Ġvert": 3707,
      "Ġlooking": 3708,
      "Ġfair": 3709,
      "Ġtold": 3710,
      "Ġmath": 3711,
      "ĠĠĠĠĠĠĠĠĠĠĠĠĠĠĠĠĠĠĠĠĠĠĠ": 3712,
      "Ġstress": 3713,
      "Ġemot": 3714,
      "Ġbill": 3715,
      "ãĢ": 3716,
      "hal": 3717,
      "Ġfollowed": 3718,
      "py": 3719,
      "Ġtro": 3720,
      "Ġaltern": 3721,
      "Ġallowed": 3722,
      "Ġmiss": 3723,
      "Ġpack": 3724,
      "77": 3725,
      "Ġseparate": 3726,
      "Ġformer": 3727,
      "oke": 3728,
      "Ġuseful": 3729,
      "Ġclasses": 3730,
      "Ġyellow": 3731,
      "umber": 3732,
      "Ġfight": 3733,
      "ille": 3734,
      "Ġsetting": 3735,
      "Ġinterpre": 3736,
      "Ġrules": 3737,
      "Ġnor": 3738,
      "ournal": 3739,
      "Ġdecision": 3740,
      "Ġadditional": 3741,
      "atus": 3742,
      "OT": 3743,
      "Ġ!=": 3744,
      "Ġideas": 3745,
      "Ġmanufact": 3746,
      "usion": 3747,
      "hern": 3748,
      "Ġgave": 3749,
      "Ġconsequ": 3750,
      "Ġlives": 3751,
      "ĠGl": 3752,
      "Ġadvant": 3753,
      "Ġparticip": 3754,
      "Ġconnection": 3755,
      "Ġdead": 3756,
      "sv": 3757,
      "ĠJan": 3758,
      "book": 3759,
      "ĠFrom": 3760,
      "iform": 3761,
      "ophy": 3762,
      "Ġprep": 3763,
      "state": 3764,
      "ĠYour": 3765,
      "user": 3766,
      "Ġdefendant": 3767,
      "itute": 3768,
      "Ġleaves": 3769,
      "Ġcou": 3770,
      "asion": 3771,
      "56": 3772,
      "Ġune": 3773,
      "split": 3774,
      "Ġmere": 3775,
      "ellen": 3776,
      "Ã©e": 3777,
      "Ġfoot": 3778,
      "uary": 3779,
      "Ġcolon": 3780,
      "ĠThus": 3781,
      "Ġsecur": 3782,
      "days": 3783,
      "Ġvisible": 3784,
      "Ġprogress": 3785,
      "ĠIN": 3786,
      "Ġweak": 3787,
      "Ġslight": 3788,
      "Ġthreat": 3789,
      "onom": 3790,
      "Ġcompan": 3791,
      "ulated": 3792,
      "Ġscientific": 3793,
      "Ġhours": 3794,
      "ths": 3795,
      "pril": 3796,
      "Ġhat": 3797,
      "Ġspecified": 3798,
      "aily": 3799,
      "ĠForm": 3800,
      "Ġupper": 3801,
      "Ġincome": 3802,
      "Ġsources": 3803,
      "Ġnorth": 3804,
      "ashing": 3805,
      "hold": 3806,
      "asc": 3807,
      "Ġexamples": 3808,
      "hand": 3809,
      "****": 3810,
      "Ġmap": 3811,
      "Ġsupply": 3812,
      "Ġestablished": 3813,
      "Ġspirit": 3814,
      "Ġperfect": 3815,
      "rest": 3816,
      "oe": 3817,
      "king": 3818,
      "By": 3819,
      "Ġyield": 3820,
      "AD": 3821,
      "Ġreligious": 3822,
      "41": 3823,
      "abase": 3824,
      "amic": 3825,
      "while": 3826,
      "Se": 3827,
      "ĠRoman": 3828,
      "Ġhair": 3829,
      "Ġrout": 3830,
      "ĠSpe": 3831,
      "sect": 3832,
      "thern": 3833,
      "Ġsaf": 3834,
      "Ġasked": 3835,
      "ĠWest": 3836,
      "Ġhydro": 3837,
      "Ġforeign": 3838,
      "49": 3839,
      "emy": 3840,
      "hens": 3841,
      "\\(": 3842,
      "log": 3843,
      "'''": 3844,
      "ĠEm": 3845,
      "ĠAL": 3846,
      "Ġstrings": 3847,
      "Ġempty": 3848,
      "odies": 3849,
      "ander": 3850,
      "Ġdamage": 3851,
      "inese": 3852,
      "ĠMany": 3853,
      "Ġcompl": 3854,
      "Ġsche": 3855,
      "ĠTra": 3856,
      "itable": 3857,
      "No": 3858,
      "alle": 3859,
      "Ġfund": 3860,
      "Ġprocesses": 3861,
      "Ġpun": 3862,
      "ĠAc": 3863,
      "Ġwrong": 3864,
      "aul": 3865,
      "Ġsite": 3866,
      "ancial": 3867,
      "Ġrapid": 3868,
      "Ġglass": 3869,
      "ocks": 3870,
      "Ġcollect": 3871,
      "`:": 3872,
      "Ġreview": 3873,
      "Ġshare": 3874,
      "org": 3875,
      "roy": 3876,
      "Com": 3877,
      "ĠÂłĠÂł": 3878,
      "________________": 3879,
      "Ġeval": 3880,
      "Ġdesigned": 3881,
      "ĠMost": 3882,
      "Ġil": 3883,
      "ham": 3884,
      "Ġax": 3885,
      "inf": 3886,
      "iency": 3887,
      "ĠSim": 3888,
      "Ġcenter": 3889,
      "ĠMore": 3890,
      "Ġadop": 3891,
      "Ġparam": 3892,
      "Ġwhom": 3893,
      "Ġperformance": 3894,
      "roll": 3895,
      "Ġaspect": 3896,
      "Ġcopy": 3897,
      "Ġu": 3898,
      "ĠFirst": 3899,
      "Ġunit": 3900,
      "Ġrepl": 3901,
      "Ð°": 3902,
      "Ġnur": 3903,
      "Ġveget": 3904,
      "Ġice": 3905,
      "ĠLondon": 3906,
      "Ġacqu": 3907,
      "Ġbox": 3908,
      "ĠNat": 3909,
      ".*": 3910,
      "Ġcamp": 3911,
      "89": 3912,
      "CO": 3913,
      "reme": 3914,
      "Ġrat": 3915,
      "Ġ<=": 3916,
      "Ġult": 3917,
      "Ġreach": 3918,
      "ped": 3919,
      "ĠRec": 3920,
      "Ġphilos": 3921,
      "One": 3922,
      "Ph": 3923,
      "ishing": 3924,
      "Ġcorresponding": 3925,
      "Ġbeyond": 3926,
      "olic": 3927,
      "ĠIntern": 3928,
      "mitted": 3929,
      "Ġevolution": 3930,
      "Ġtrack": 3931,
      "Ġcoast": 3932,
      "Ġstrateg": 3933,
      "Ġdifferen": 3934,
      "Ġreve": 3935,
      "Ġstarted": 3936,
      "unt": 3937,
      "ety": 3938,
      "ideo": 3939,
      "ream": 3940,
      "Ġtruth": 3941,
      "Ġscientists": 3942,
      "otes": 3943,
      "Ġnote": 3944,
      "Ġprivate": 3945,
      "ĠEuropean": 3946,
      "Ġdocument": 3947,
      "omin": 3948,
      "itch": 3949,
      "Ã¤h": 3950,
      "Ġextrem": 3951,
      "Ġinsert": 3952,
      "pat": 3953,
      "Ġhighly": 3954,
      "ĠLord": 3955,
      "Ġpan": 3956,
      "AP": 3957,
      "Ġintegers": 3958,
      "ĠEl": 3959,
      "Ġreasons": 3960,
      "Ġgenerate": 3961,
      "ĠSw": 3962,
      "Ġcircum": 3963,
      "Ġsec": 3964,
      "rim": 3965,
      "Ġdebt": 3966,
      "enty": 3967,
      "Ġrise": 3968,
      "Ġimplements": 3969,
      "Ġnodes": 3970,
      "iger": 3971,
      "ensity": 3972,
      "ĠConst": 3973,
      "vey": 3974,
      "requ": 3975,
      "poss": 3976,
      "Ġ//": 3977,
      "Ġfra": 3978,
      "Ġdefinition": 3979,
      "zy": 3980,
      "Ġimportance": 3981,
      "Node": 3982,
      "lt": 3983,
      "Ġwindow": 3984,
      "ging": 3985,
      "Ġleave": 3986,
      "Ġvict": 3987,
      "atin": 3988,
      "Ġquickly": 3989,
      "ĠHol": 3990,
      "Ġdetect": 3991,
      "Ġmut": 3992,
      "'.": 3993,
      "ris": 3994,
      "Ġsouth": 3995,
      "Ġstra": 3996,
      "ĠTrans": 3997,
      "omet": 3998,
      "ww": 3999,
      "Ġidentify": 4000,
      "ception": 4001,
      "itz": 4002,
      "Ðµ": 4003,
      "Ġgovern": 4004,
      "ĠÃ¼ber": 4005,
      "Ġoccurs": 4006,
      "orthern": 4007,
      "Ġalone": 4008,
      "Ġcontract": 4009,
      "second": 4010,
      "Ġcompletely": 4011,
      "gra": 4012,
      "Ġinteresting": 4013,
      "Ġcam": 4014,
      "Ġqui": 4015,
      "Ġrare": 4016,
      "At": 4017,
      "ĠGreat": 4018,
      "Ġdifferences": 4019,
      "43": 4020,
      "Ġtransport": 4021,
      "Ġstar": 4022,
      "ĠChristian": 4023,
      "Ġclaims": 4024,
      "fort": 4025,
      "Ġcand": 4026,
      "abel": 4027,
      "Ġnation": 4028,
      "was": 4029,
      "Ġreference": 4030,
      "Ġapprox": 4031,
      "Ġmental": 4032,
      "ĠST": 4033,
      "alled": 4034,
      "Ġleading": 4035,
      "Ġconstruct": 4036,
      "which": 4037,
      "Ġprimary": 4038,
      "ography": 4039,
      "Ġfear": 4040,
      "Ġcredit": 4041,
      "Ġwide": 4042,
      "encies": 4043,
      "Ġconv": 4044,
      "Ġbenefits": 4045,
      "Ġaud": 4046,
      "Ġactive": 4047,
      "Ġbalance": 4048,
      "Ġswe": 4049,
      "Ġforward": 4050,
      "Ġscale": 4051,
      "Ġcold": 4052,
      "Ġanaly": 4053,
      "Ġoption": 4054,
      "Ġmachine": 4055,
      "enth": 4056,
      "ĠHouse": 4057,
      "Ġobserved": 4058,
      "long": 4059,
      "Ġscore": 4060,
      "Ġsem": 4061,
      "Be": 4062,
      "Ġdecor": 4063,
      "ungs": 4064,
      "what": 4065,
      "Ġgoes": 4066,
      "Ġeverything": 4067,
      "acci": 4068,
      "bal": 4069,
      "Ġestim": 4070,
      "ĠHere": 4071,
      "ava": 4072,
      "ico": 4073,
      "Ġrequires": 4074,
      "ogle": 4075,
      "poses": 4076,
      "Ġcounter": 4077,
      "Ġsentence": 4078,
      "Ġtests": 4079,
      "Ġapplied": 4080,
      "Ġcompared": 4081,
      "Ġincluded": 4082,
      "05": 4083,
      "ĠVol": 4084,
      "pop": 4085,
      "Ġcontroll": 4086,
      "bar": 4087,
      "mod": 4088,
      "Ġfollows": 4089,
      "based": 4090,
      "Ġinn": 4091,
      "load": 4092,
      "rief": 4093,
      "tree": 4094,
      "ette": 4095,
      "Ġbeaut": 4096,
      "Ġdistribution": 4097,
      "ĠNow": 4098,
      "Ġstru": 4099,
      "Ġenj": 4100,
      "Ġbooks": 4101,
      "Ġcomment": 4102,
      "Ġcosts": 4103,
      "Ġdegree": 4104,
      "rote": 4105,
      "Ġwin": 4106,
      "Ġpair": 4107,
      "counts": 4108,
      "Ġ->": 4109,
      "bed": 4110,
      "Ġpeace": 4111,
      "iments": 4112,
      "ocr": 4113,
      "Ġfiles": 4114,
      "Ġsac": 4115,
      "à¤¯": 4116,
      "Ġlocation": 4117,
      "Ġhon": 4118,
      "Ġproced": 4119,
      "Ġrob": 4120,
      "Ġmo": 4121,
      "Ġparents": 4122,
      "Ġrunning": 4123,
      "010": 4124,
      "Ġeth": 4125,
      "more": 4126,
      "Ġsecurity": 4127,
      "Ġtraditional": 4128,
      "Ġmag": 4129,
      "Ġcommer": 4130,
      "aging": 4131,
      "ĠMc": 4132,
      "ronic": 4133,
      "Ġfeat": 4134,
      "edia": 4135,
      "Ġemerg": 4136,
      "Ġcateg": 4137,
      "known": 4138,
      "Ġremove": 4139,
      "arrow": 4140,
      "Ġhealthy": 4141,
      "Ġliqu": 4142,
      "ibly": 4143,
      "Ġautom": 4144,
      "orks": 4145,
      "Ġarm": 4146,
      "Ġappropriate": 4147,
      "ygen": 4148,
      "Ġvor": 4149,
      "uration": 4150,
      "Ġtransfer": 4151,
      "Ġresearchers": 4152,
      "squ": 4153,
      "aught": 4154,
      "amples": 4155,
      "uman": 4156,
      "Ġ{}": 4157,
      "Ġlatter": 4158,
      "Ġcitiz": 4159,
      "Ġcop": 4160,
      "Ġformat": 4161,
      "Ġremains": 4162,
      "_{": 4163,
      "des": 4164,
      "lict": 4165,
      "Ġchoose": 4166,
      "Ġpatients": 4167,
      "Ġassert": 4168,
      "Ġpicture": 4169,
      "Ġfuel": 4170,
      "Ġdetermined": 4171,
      "Ġsecret": 4172,
      "onacci": 4173,
      "ĠEach": 4174,
      "Ġtask": 4175,
      "Ġwild": 4176,
      "rew": 4177,
      "Ġgrowing": 4178,
      "la": 4179,
      "illing": 4180,
      "ĠDNA": 4181,
      "Ġhope": 4182,
      "aper": 4183,
      "See": 4184,
      "Ġsteps": 4185,
      "total": 4186,
      "ban": 4187,
      "war": 4188,
      "hesis": 4189,
      "Ġmoving": 4190,
      "ĠLa": 4191,
      "Ġscreen": 4192,
      "ĠCreate": 4193,
      "ptember": 4194,
      "Ġdass": 4195,
      "Ġbelief": 4196,
      "Ġtrib": 4197,
      "Ġexplain": 4198,
      "Ġstay": 4199,
      "ĠEven": 4200,
      "ĠGermany": 4201,
      "Ġtrying": 4202,
      "Ġsatisf": 4203,
      "Ġwooden": 4204,
      "Ġveh": 4205,
      "Ġau": 4206,
      "57": 4207,
      "().": 4208,
      "Ġnav": 4209,
      "Ġsufficient": 4210,
      "Ġvirus": 4211,
      "Ġmix": 4212,
      "ais": 4213,
      "Ġlegal": 4214,
      "vis": 4215,
      "à¤µ": 4216,
      "Ġprinted": 4217,
      "rical": 4218,
      "012": 4219,
      "Ġconclus": 4220,
      "ĠAugust": 4221,
      "ĠChinese": 4222,
      "ĠAustral": 4223,
      "ĠWilli": 4224,
      "ails": 4225,
      "ĠOf": 4226,
      "Ġfemale": 4227,
      "Ġmanner": 4228,
      "Ġreported": 4229,
      "ibonacci": 4230,
      "Ãª": 4231,
      "Ġign": 4232,
      "ees": 4233,
      "Ġfinds": 4234,
      "Ġthinking": 4235,
      "term": 4236,
      "ĠOct": 4237,
      "ĠEnt": 4238,
      "Ġvit": 4239,
      "ĠdÃ©": 4240,
      "Ġvill": 4241,
      "Ġoffice": 4242,
      "Ġcast": 4243,
      "top": 4244,
      "uls": 4245,
      "Ġproceed": 4246,
      "Ġexercise": 4247,
      "Ġlat": 4248,
      "Ġalt": 4249,
      "Ġcarried": 4250,
      "Ġstands": 4251,
      "ancy": 4252,
      "onal": 4253,
      "Ġplanet": 4254,
      "orial": 4255,
      "Ã¢": 4256,
      "Ġfrequency": 4257,
      "Ġconvers": 4258,
      "Ġload": 4259,
      "Ġcontinued": 4260,
      "Ġpiece": 4261,
      "inst": 4262,
      "Ġborn": 4263,
      "Ġremaining": 4264,
      "========": 4265,
      "pped": 4266,
      "Ġdut": 4267,
      "water": 4268,
      "ĠSub": 4269,
      "Ġlayer": 4270,
      "Ġdry": 4271,
      "Ġensure": 4272,
      "ĠCons": 4273,
      "All": 4274,
      "ĠDes": 4275,
      "ibrary": 4276,
      "ĠGet": 4277,
      "Ġdrink": 4278,
      "UT": 4279,
      "Ġselect": 4280,
      "ĠCongress": 4281,
      "met": 4282,
      "Ġtitle": 4283,
      "osa": 4284,
      "Ġbottom": 4285,
      "Ġpaid": 4286,
      "Ġstim": 4287,
      "Ġih": 4288,
      "Ġbelong": 4289,
      "Ġachieve": 4290,
      "ĠAfrica": 4291,
      "Ġvirt": 4292,
      "De": 4293,
      "ford": 4294,
      "011": 4295,
      "Ġpresence": 4296,
      "Ġassess": 4297,
      "Gen": 4298,
      "aling": 4299,
      "Ġpatient": 4300,
      "ĠIII": 4301,
      "Ġobtained": 4302,
      "format": 4303,
      "Ġmanagement": 4304,
      "Ġalle": 4305,
      "Ġactions": 4306,
      "inations": 4307,
      "Ġopinion": 4308,
      "uries": 4309,
      "fig": 4310,
      "ager": 4311,
      "ĠScience": 4312,
      "Ġship": 4313,
      "code": 4314,
      "Ġcool": 4315,
      "Ġeight": 4316,
      "iden": 4317,
      "pen": 4318,
      "Is": 4319,
      "Ġcontext": 4320,
      "bran": 4321,
      "Ġinstr": 4322,
      "Ġconnected": 4323,
      "ĠĠĠĠĊ": 4324,
      "Ġatmosphere": 4325,
      "Ġprotein": 4326,
      "Ġcapacity": 4327,
      "aped": 4328,
      "ned": 4329,
      "Ġleaders": 4330,
      "].": 4331,
      "dict": 4332,
      "Ġgod": 4333,
      "Ġvariables": 4334,
      "Ġabsol": 4335,
      "Ad": 4336,
      "Ġpurch": 4337,
      "Ġdetails": 4338,
      "Ġdevice": 4339,
      "Ġexactly": 4340,
      "aled": 4341,
      "Ġbreat": 4342,
      "ĠĠĠĠĠĠĠĠĠĠĠĠĠĠĠĠĠ": 4343,
      "ĠÃ©": 4344,
      "Ġsets": 4345,
      "Ġfully": 4346,
      "Ġrevers": 4347,
      "Ġhelps": 4348,
      "ella": 4349,
      "Ġentered": 4350,
      "Ġauthority": 4351,
      "Ġintellig": 4352,
      "67": 4353,
      "hab": 4354,
      "ĠMod": 4355,
      "Ġsevere": 4356,
      "Ġsky": 4357,
      "Ġtou": 4358,
      "ĠJune": 4359,
      "Ġworth": 4360,
      "Ġimmediately": 4361,
      "With": 4362,
      "001": 4363,
      "gypt": 4364,
      "Ġfeaturing": 4365,
      "Ġreceive": 4366,
      "Ġdro": 4367,
      "times": 4368,
      "Ġefficient": 4369,
      "ĠZe": 4370,
      "Ġdyn": 4371,
      "Ġmale": 4372,
      "ĠAlthough": 4373,
      "ĺĲ": 4374,
      "estion": 4375,
      "Ġearlier": 4376,
      ".**": 4377,
      "Ġjoint": 4378,
      "Ġbul": 4379,
      "Ġversion": 4380,
      "Ġrates": 4381,
      "Ġcompos": 4382,
      "Ġproperties": 4383,
      "300": 4384,
      "stud": 4385,
      "Ġdivis": 4386,
      "ĠJud": 4387,
      "random": 4388,
      "Ġchief": 4389,
      "nen": 4390,
      "Ġraise": 4391,
      "ously": 4392,
      "iny": 4393,
      "Ġmajority": 4394,
      "From": 4395,
      "Ġgradu": 4396,
      "ĠPre": 4397,
      "ato": 4398,
      "Ġlif": 4399,
      "isc": 4400,
      "Ġcollection": 4401,
      "Ġfacts": 4402,
      "Ġbacteria": 4403,
      "Ġesc": 4404,
      "III": 4405,
      "Ġphen": 4406,
      "Ġenjoy": 4407,
      "Ġfine": 4408,
      "Ġlie": 4409,
      "Ġocean": 4410,
      "pite": 4411,
      "oses": 4412,
      "Ġdistrict": 4413,
      "Ġchanged": 4414,
      "Ġdiagn": 4415,
      "à¤¨": 4416,
      "oming": 4417,
      "estic": 4418,
      "han": 4419,
      "ache": 4420,
      "Ġthick": 4421,
      "iverse": 4422,
      "iot": 4423,
      "ĠProf": 4424,
      "Ġresulting": 4425,
      "Ġskills": 4426,
      "Ġwie": 4427,
      "level": 4428,
      "AB": 4429,
      "ĠAND": 4430,
      "cember": 4431,
      "iforn": 4432,
      "Ġpurs": 4433,
      "iful": 4434,
      "Ġmentioned": 4435,
      "Ġfavor": 4436,
      "://": 4437,
      "ĠBra": 4438,
      "Ġfort": 4439,
      "Ġvent": 4440,
      "ky": 4441,
      "Ġadapt": 4442,
      "Ġconflict": 4443,
      "cohol": 4444,
      "fact": 4445,
      "choice": 4446,
      "zen": 4447,
      "Ġholding": 4448,
      "Ġworkers": 4449,
      "Ġtoward": 4450,
      "Ġresponsible": 4451,
      "Ġarmy": 4452,
      "IG": 4453,
      "Ġtrou": 4454,
      "Ġvolume": 4455,
      "Ġaware": 4456,
      "orge": 4457,
      "Ġpredict": 4458,
      "ĠGeneral": 4459,
      "Î½": 4460,
      "Ġfinancial": 4461,
      "Ġdaily": 4462,
      "Ġstrength": 4463,
      "Ġcompanies": 4464,
      "ĠSince": 4465,
      "Ġriver": 4466,
      "Ġdied": 4467,
      "car": 4468,
      "ĠMarch": 4469,
      "Ġgrid": 4470,
      "Ġhighest": 4471,
      "oper": 4472,
      "ĠWhy": 4473,
      "Ġexistence": 4474,
      "ĠLaw": 4475,
      "Ġgrand": 4476,
      "semb": 4477,
      "ĠFind": 4478,
      "Ġqual": 4479,
      "agram": 4480,
      "win": 4481,
      "ĠLet": 4482,
      "ship": 4483,
      "Ġimages": 4484,
      "Î±": 4485,
      "mark": 4486,
      "Ġbab": 4487,
      "Ġshowing": 4488,
      "olved": 4489,
      "Ġiron": 4490,
      "Ġoder": 4491,
      "organ": 4492,
      "possible": 4493,
      "antic": 4494,
      "lower": 4495,
      "plot": 4496,
      "Ġtim": 4497,
      "no": 4498,
      "ĠBar": 4499,
      "Ġsitu": 4500,
      "Ġmember": 4501,
      "pir": 4502,
      "Ġdoubt": 4503,
      "Ġabsor": 4504,
      "ashington": 4505,
      "Ġfresh": 4506,
      "Ġsolar": 4507,
      "Ġdidn": 4508,
      "last": 4509,
      "else": 4510,
      "udd": 4511,
      "ball": 4512,
      "Ġexisting": 4513,
      "Ġeconomy": 4514,
      "onic": 4515,
      "cv": 4516,
      "Ġreduced": 4517,
      "ĠJuly": 4518,
      "eks": 4519,
      "Ġcharge": 4520,
      "ĠBer": 4521,
      "Ġisn": 4522,
      "Ġpatterns": 4523,
      "ĠRem": 4524,
      "Ġdiscovered": 4525,
      "Ġpassword": 4526,
      "Ġliber": 4527,
      "Ġreads": 4528,
      "Or": 4529,
      "Ġfruit": 4530,
      "Ġmouth": 4531,
      "Ġcharg": 4532,
      "Ġvess": 4533,
      "Ġgoal": 4534,
      "ĠCheck": 4535,
      "ĠCoun": 4536,
      "UN": 4537,
      "Ġmathemat": 4538,
      "isher": 4539,
      "EM": 4540,
      "\\(^": 4541,
      "mal": 4542,
      "Ġaf": 4543,
      "Ġcolorful": 4544,
      "ĠPhil": 4545,
      "007": 4546,
      "Ġapply": 4547,
      "Ġfit": 4548,
      "Ġrecords": 4549,
      "Ġdiss": 4550,
      "ĠEast": 4551,
      "Ġwaste": 4552,
      "Ġmill": 4553,
      "Ġscen": 4554,
      "Ġgiving": 4555,
      "013": 4556,
      "edom": 4557,
      "miss": 4558,
      "Ġexperiment": 4559,
      "rum": 4560,
      "augh": 4561,
      "OS": 4562,
      "Ġpowerful": 4563,
      "rend": 4564,
      "Ġcommunication": 4565,
      "Ġwrote": 4566,
      "lement": 4567,
      "008": 4568,
      "Ġec": 4569,
      "ĠDist": 4570,
      "Ġoffer": 4571,
      "ĠApril": 4572,
      "etime": 4573,
      "Ġoxygen": 4574,
      "Ġfoods": 4575,
      "Ġinform": 4576,
      "Ð¸": 4577,
      "oo": 4578,
      "ipment": 4579,
      "Ġsugar": 4580,
      "Ġhous": 4581,
      "Ġren": 4582,
      "Ġremoved": 4583,
      "Ġstated": 4584,
      "enses": 4585,
      "oted": 4586,
      "ĠGreek": 4587,
      "Ġsample": 4588,
      "function": 4589,
      "Ġagricult": 4590,
      "ports": 4591,
      "Ġqueue": 4592,
      "Ġ\\)": 4593,
      "OL": 4594,
      "Ġdiam": 4595,
      "Ġsett": 4596,
      "Ġ)": 4597,
      "Ġpercent": 4598,
      "Ġestablish": 4599,
      "Ġextent": 4600,
      "ĠDi": 4601,
      "Ġcoming": 4602,
      "Ġtypically": 4603,
      "rapy": 4604,
      "Ġspeech": 4605,
      "map": 4606,
      "ĠfÃ¼r": 4607,
      "Ġsav": 4608,
      "Ġdigits": 4609,
      "Ġpret": 4610,
      "Ġheard": 4611,
      "Ġnums": 4612,
      "itect": 4613,
      "Ġstatus": 4614,
      "Ġexists": 4615,
      "Ġdomin": 4616,
      "Ġextract": 4617,
      "Ġroad": 4618,
      "Ġproport": 4619,
      "Ġburn": 4620,
      "Ġfriends": 4621,
      "endants": 4622,
      "score": 4623,
      "Ġcommonly": 4624,
      "ĠEgypt": 4625,
      "sm": 4626,
      "volution": 4627,
      "Ġstanding": 4628,
      "Ġrace": 4629,
      "umin": 4630,
      "Ġrelatively": 4631,
      "Ġportion": 4632,
      "\\)": 4633,
      "Ġbelieved": 4634,
      "ĠCity": 4635,
      "Ġsides": 4636,
      "Ġvisual": 4637,
      "Ġwat": 4638,
      "Ġsoftware": 4639,
      "Ġmarg": 4640,
      "ovember": 4641,
      "Ġmaintain": 4642,
      "scape": 4643,
      "Ġclearly": 4644,
      "Ġrelative": 4645,
      "Ġreturned": 4646,
      "Ġmedia": 4647,
      "iddle": 4648,
      "ĠHistory": 4649,
      "Ġhabit": 4650,
      "These": 4651,
      "ference": 4652,
      "Ġfederal": 4653,
      "ĠSystem": 4654,
      "Ġgrant": 4655,
      "Ġpick": 4656,
      "ims": 4657,
      "ifornia": 4658,
      "Ġlegis": 4659,
      "Ġnotice": 4660,
      "Ġfeet": 4661,
      "oral": 4662,
      "Ġroll": 4663,
      "Ġapparent": 4664,
      "Ġcycle": 4665,
      "009": 4666,
      "down": 4667,
      "ĠAlso": 4668,
      "Ġrecurs": 4669,
      "inc": 4670,
      "Ġstyle": 4671,
      "Ġmatch": 4672,
      "ĠIS": 4673,
      "Ġdra": 4674,
      "Ġdatabase": 4675,
      "Ġdestroy": 4676,
      "ĠArch": 4677,
      "enge": 4678,
      "Ġcities": 4679,
      "arian": 4680,
      "ĠBecause": 4681,
      "That": 4682,
      "gel": 4683,
      "Ġreligion": 4684,
      "ocal": 4685,
      "ĠUnion": 4686,
      "Ġfinding": 4687,
      "ilies": 4688,
      "Ġreferred": 4689,
      "Ġdistingu": 4690,
      "erences": 4691,
      "emic": 4692,
      "ische": 4693,
      "Ġreached": 4694,
      "rand": 4695,
      "ĠDav": 4696,
      "Ġinternational": 4697,
      "Ġeiner": 4698,
      "anges": 4699,
      "ĠPal": 4700,
      "Ġtru": 4701,
      "Ġspect": 4702,
      "Ġobvious": 4703,
      "ĠJust": 4704,
      "Ġsymbol": 4705,
      "cht": 4706,
      "64": 4707,
      "Ġprices": 4708,
      "Ġbirds": 4709,
      "Ġdoct": 4710,
      "Ġvideo": 4711,
      "anged": 4712,
      "net": 4713,
      "las": 4714,
      "Ġweather": 4715,
      "Im": 4716,
      "Ġvibr": 4717,
      "ĠBi": 4718,
      "IM": 4719,
      "ester": 4720,
      "ida": 4721,
      "Ġadding": 4722,
      "Ġdeveloping": 4723,
      "ishes": 4724,
      "Ġrespond": 4725,
      "Ġincor": 4726,
      "Ġremember": 4727,
      "cious": 4728,
      "IST": 4729,
      "Ġhour": 4730,
      "enden": 4731,
      "ria": 4732,
      "ka": 4733,
      "arden": 4734,
      "Ġcircumst": 4735,
      "Ġzero": 4736,
      "image": 4737,
      "Ġrich": 4738,
      "ĠDepartment": 4739,
      "Ġrepresented": 4740,
      "ebru": 4741,
      "ĠPhys": 4742,
      "ĠServ": 4743,
      "Ġcru": 4744,
      "Ġnumerous": 4745,
      "ya": 4746,
      "Ġbodies": 4747,
      "Ġinvestig": 4748,
      "Ġwer": 4749,
      "Ġsuccessful": 4750,
      "hem": 4751,
      "Ġexplan": 4752,
      "istry": 4753,
      "Ġupd": 4754,
      "ĠAdd": 4755,
      "Ġgir": 4756,
      "ĠĠĠĠĠĠĠĠĠĠĠĠĠĠĠĠĠĠ": 4757,
      "Ġturned": 4758,
      "pet": 4759,
      "Ġlocated": 4760,
      "Ġincreases": 4761,
      "vention": 4762,
      "Ġrul": 4763,
      "Ġuns": 4764,
      "Ġ>=": 4765,
      "kt": 4766,
      "Ġinternal": 4767,
      "ords": 4768,
      "anish": 4769,
      "berg": 4770,
      "eding": 4771,
      "force": 4772,
      "ĠJes": 4773,
      "Ġmetal": 4774,
      "aste": 4775,
      "Ġreaction": 4776,
      "]:": 4777,
      "ners": 4778,
      "Ġstructures": 4779,
      "016": 4780,
      "Ġcomponents": 4781,
      "iti": 4782,
      "Ġkept": 4783,
      "Ġsand": 4784,
      "lines": 4785,
      "Ġprograms": 4786,
      "Ġsafe": 4787,
      "Ġrepresentation": 4788,
      "ĠAccording": 4789,
      "child": 4790,
      "Ġscene": 4791,
      "osen": 4792,
      "Ġexcess": 4793,
      "utive": 4794,
      "Ġbattle": 4795,
      "urance": 4796,
      "ulf": 4797,
      "Ġcovered": 4798,
      "case": 4799,
      "aud": 4800,
      "ÏĦ": 4801,
      "ĠChurch": 4802,
      "Ġhistorical": 4803,
      "Ġlabel": 4804,
      "Ġstock": 4805,
      "Ġunf": 4806,
      "ĠAut": 4807,
      "Ġgenetic": 4808,
      "erior": 4809,
      "ĠHealth": 4810,
      "Ġcry": 4811,
      "player": 4812,
      "Ġformation": 4813,
      "Ġtrust": 4814,
      "014": 4815,
      "Ġgets": 4816,
      "Ġterrit": 4817,
      "ĠInc": 4818,
      "Ġorganization": 4819,
      "isation": 4820,
      "Ġfeature": 4821,
      "cel": 4822,
      "items": 4823,
      "two": 4824,
      "Ġcombination": 4825,
      "oma": 4826,
      "Ġenvironmental": 4827,
      "ping": 4828,
      "Ġvisit": 4829,
      "Ġtesting": 4830,
      "item": 4831,
      "Ġdevices": 4832,
      "Ġum": 4833,
      "ections": 4834,
      "rec": 4835,
      "asks": 4836,
      "ebruary": 4837,
      ".).": 4838,
      "Ġsignal": 4839,
      "Why": 4840,
      "58": 4841,
      "Ġrestr": 4842,
      "Ab": 4843,
      "Ġprotection": 4844,
      "Ġequipment": 4845,
      "Ġdigit": 4846,
      "ATION": 4847,
      "Ġdivision": 4848,
      "Ġid": 4849,
      "Ġunless": 4850,
      "ĠSur": 4851,
      "ĠCalifornia": 4852,
      "Some": 4853,
      "body": 4854,
      "Ġgoods": 4855,
      "Ġdiseases": 4856,
      "imm": 4857,
      "Ġjudgment": 4858,
      "ĠRed": 4859,
      "Ġwidth": 4860,
      "ifying": 4861,
      "Ġdefault": 4862,
      "Ġwinter": 4863,
      "Ġtransl": 4864,
      "pha": 4865,
      "Ġtemp": 4866,
      "txt": 4867,
      "uzz": 4868,
      "orders": 4869,
      "arp": 4870,
      "Ġdouble": 4871,
      "Ġtools": 4872,
      "ĠOut": 4873,
      "Ġreflect": 4874,
      "ĠSolution": 4875,
      "sten": 4876,
      "[:": 4877,
      "lig": 4878,
      "Ġpurposes": 4879,
      "ij": 4880,
      "oding": 4881,
      "Ġhom": 4882,
      "ĠTheir": 4883,
      "Ġfaith": 4884,
      "CE": 4885,
      "Ġschools": 4886,
      "rol": 4887,
      "TER": 4888,
      "itions": 4889,
      "ĠSer": 4890,
      "Ġregions": 4891,
      "400": 4892,
      "alculates": 4893,
      "Ġworked": 4894,
      "exp": 4895,
      "Ġasc": 4896,
      "Ġweb": 4897,
      "ĠWashington": 4898,
      "Ġrecently": 4899,
      "Ġaffected": 4900,
      "Ġdescription": 4901,
      "âĢĿ.": 4902,
      "Ġconstruction": 4903,
      "Ã¨s": 4904,
      "XX": 4905,
      "Ġpour": 4906,
      "indrome": 4907,
      "stract": 4908,
      "Ġappoint": 4909,
      "Ġsave": 4910,
      "Ġadvantage": 4911,
      "Ġfram": 4912,
      "Ġseason": 4913,
      "Ġcro": 4914,
      "icial": 4915,
      "Ġutil": 4916,
      "ÑĤ": 4917,
      "erved": 4918,
      "Ġinner": 4919,
      "Ġhappen": 4920,
      "ervation": 4921,
      "Ġcoordin": 4922,
      "Ġparties": 4923,
      "Ġprinciple": 4924,
      "unic": 4925,
      "Ġfailure": 4926,
      "Ġbenefit": 4927,
      "rip": 4928,
      "Ġwebs": 4929,
      "ambda": 4930,
      "ĠTur": 4931,
      "Ġheavy": 4932,
      "Ġmist": 4933,
      "Ġfif": 4934,
      "Ġrepeated": 4935,
      "column": 4936,
      "Ġrele": 4937,
      "Ġhear": 4938,
      "Ġindependent": 4939,
      "Ġplaintiff": 4940,
      "ĠDuring": 4941,
      "phas": 4942,
      "erent": 4943,
      "ĠMex": 4944,
      "à¥ĩ": 4945,
      "Ġfrequently": 4946,
      "Ġsynt": 4947,
      "Ġpure": 4948,
      "Ġbehavi": 4949,
      "Ġnews": 4950,
      "ormal": 4951,
      "Ġarr": 4952,
      "Ġindeed": 4953,
      "apping": 4954,
      "Ġinterval": 4955,
      "Ġplate": 4956,
      "Ġgreatest": 4957,
      "Ġfilled": 4958,
      "ags": 4959,
      "ÃŃ": 4960,
      "osing": 4961,
      "gn": 4962,
      "draw": 4963,
      "Ġgrass": 4964,
      "Ġreality": 4965,
      "Ġmal": 4966,
      "orage": 4967,
      "Ġcritical": 4968,
      "ÂłÂłÂł": 4969,
      "Your": 4970,
      "Ġfields": 4971,
      "Ġdepth": 4972,
      "Ġkn": 4973,
      "Res": 4974,
      "Ġextremely": 4975,
      "well": 4976,
      "mission": 4977,
      "Ġcart": 4978,
      "rence": 4979,
      "icks": 4980,
      "à¤®": 4981,
      "house": 4982,
      "015": 4983,
      "ĠData": 4984,
      "Ġprincip": 4985,
      "Ġscript": 4986,
      "Ġaber": 4987,
      "Ġindustrial": 4988,
      "Ġrelease": 4989,
      "Ġslightly": 4990,
      "Ġexpos": 4991,
      "atever": 4992,
      "Ġchalleng": 4993,
      "Ġ@": 4994,
      "Ġapplications": 4995,
      "mary": 4996,
      "ĠRead": 4997,
      "Ġlanguages": 4998,
      "Ġsurpr": 4999,
      "Ġpresented": 5000,
      "Ġsubsequ": 5001,
      "Ġbond": 5002,
      "Ġwerden": 5003,
      "ĠSu": 5004,
      "Ġentirely": 5005,
      "Sc": 5006,
      "Ġpersons": 5007,
      "Ġusers": 5008,
      "object": 5009,
      "Ġhappens": 5010,
      "ĠOb": 5011,
      "wid": 5012,
      "vol": 5013,
      "ĠBritain": 5014,
      "Ġbrown": 5015,
      "ĠPress": 5016,
      "ĠMars": 5017,
      "ias": 5018,
      "Ġvary": 5019,
      "Ġolder": 5020,
      "Ġfinally": 5021,
      "ĠSeptember": 5022,
      "Ġsyn": 5023,
      "wer": 5024,
      "ĠOff": 5025,
      "color": 5026,
      "ĠTest": 5027,
      "Ġeveryone": 5028,
      "Ġalcohol": 5029,
      "div": 5030,
      "ructions": 5031,
      "Ġeventually": 5032,
      "Ġsust": 5033,
      "Ġteeth": 5034,
      "},": 5035,
      "005": 5036,
      "Ġraised": 5037,
      "ĠMal": 5038,
      "Ġwanted": 5039,
      "ourage": 5040,
      "grid": 5041,
      "Ġcontrast": 5042,
      "006": 5043,
      "Ġminor": 5044,
      "hours": 5045,
      "Ã¤t": 5046,
      "ifically": 5047,
      "edit": 5048,
      "Ġnuclear": 5049,
      "under": 5050,
      "asure": 5051,
      "List": 5052,
      "Ġbuy": 5053,
      "Ġwatch": 5054,
      "Ġvia": 5055,
      "Ġcommercial": 5056,
      "Ġadjust": 5057,
      "iner": 5058,
      ")(": 5059,
      "Ġmuscle": 5060,
      "Ġnarrow": 5061,
      "Ġstars": 5062,
      "Î¿": 5063,
      "Ġbright": 5064,
      "Ã³": 5065,
      "Ġtechniques": 5066,
      "Ġgain": 5067,
      "ĠAmericans": 5068,
      "search": 5069,
      "Ġanti": 5070,
      "Ġtissue": 5071,
      ")):": 5072,
      "68": 5073,
      "Ġnotes": 5074,
      "Ġsaying": 5075,
      "78": 5076,
      "Ġshowed": 5077,
      "Ġwait": 5078,
      "ĠWilliam": 5079,
      "Ġmig": 5080,
      "ĠRo": 5081,
      "omas": 5082,
      "ĠPat": 5083,
      "active": 5084,
      "Ġbrief": 5085,
      "Ġrequest": 5086,
      "ĠJanuary": 5087,
      "Ġphenomen": 5088,
      "Ġmeasures": 5089,
      "Ġstrugg": 5090,
      "ey": 5091,
      "ĠRiver": 5092,
      "rays": 5093,
      "Ã¥": 5094,
      "ayer": 5095,
      "Ġedge": 5096,
      "bin": 5097,
      ".'": 5098,
      "porary": 5099,
      "idden": 5100,
      "ĠTherefore": 5101,
      "Ġsafety": 5102,
      "Ã¨re": 5103,
      "Ġmodels": 5104,
      "stack": 5105,
      "Ġsummer": 5106,
      "Ġrecommend": 5107,
      "Ġevalu": 5108,
      "Ġcitizens": 5109,
      "bra": 5110,
      "Ġeating": 5111,
      "Ġofficer": 5112,
      "ĠDem": 5113,
      "itis": 5114,
      "Ġresistance": 5115,
      "aux": 5116,
      "lete": 5117,
      "Ġunits": 5118,
      "uild": 5119,
      "Ġdivided": 5120,
      "âĤ": 5121,
      "const": 5122,
      "Ð½": 5123,
      "Ġfixed": 5124,
      "Ġcook": 5125,
      "ĠPort": 5126,
      "urally": 5127,
      "My": 5128,
      "ora": 5129,
      "ios": 5130,
      "TH": 5131,
      "Ġflat": 5132,
      "ĠRel": 5133,
      "phone": 5134,
      "Ġlearned": 5135,
      "Ġrows": 5136,
      "---": 5137,
      "Ġinsect": 5138,
      "inen": 5139,
      "Ġwealth": 5140,
      "Ġthread": 5141,
      "Ġcertainly": 5142,
      "arc": 5143,
      "Ġfeeling": 5144,
      "Ġbrother": 5145,
      "Ġyourself": 5146,
      "Ġdoctor": 5147,
      "ean": 5148,
      "Ġeggs": 5149,
      "aria": 5150,
      "Ġshell": 5151,
      "Ġcultural": 5152,
      "After": 5153,
      "Ġangle": 5154,
      "Ġchance": 5155,
      "parent": 5156,
      "They": 5157,
      "Ġmeant": 5158,
      "Ġvacc": 5159,
      "ende": 5160,
      "Ġdisplayed": 5161,
      "Ġconvert": 5162,
      "ĠAnn": 5163,
      "Ñģ": 5164,
      "ded": 5165,
      "ett": 5166,
      "Ġspring": 5167,
      "Us": 5168,
      "Ġimpossible": 5169,
      "Ġgrav": 5170,
      "oyal": 5171,
      "di": 5172,
      "Qu": 5173,
      "izations": 5174,
      "Ġprompts": 5175,
      "Ġpoll": 5176,
      "ĠInter": 5177,
      "Ġmode": 5178,
      "Ġdiscussion": 5179,
      "08": 5180,
      "iring": 5181,
      "ĠHen": 5182,
      "Ã©es": 5183,
      "ĠAre": 5184,
      "df": 5185,
      "Ġhier": 5186,
      "Ġknew": 5187,
      "Ġflowers": 5188,
      "Ġlived": 5189,
      "EF": 5190,
      "ĠCur": 5191,
      "ifies": 5192,
      "Now": 5193,
      "Ġgeneration": 5194,
      "deg": 5195,
      "EC": 5196,
      "Ġgrade": 5197,
      "Ġreverse": 5198,
      "Ġarchitect": 5199,
      "ĠFederal": 5200,
      "Ġprem": 5201,
      "Ġopportunity": 5202,
      "Ġpowers": 5203,
      "ĠCommission": 5204,
      "Ġinfection": 5205,
      "Ġ;": 5206,
      "ĠSal": 5207,
      "Ġindicating": 5208,
      "tem": 5209,
      "Ġcircle": 5210,
      "ĠJesus": 5211,
      "Go": 5212,
      "ĠUp": 5213,
      "Ġplot": 5214,
      "Ġisol": 5215,
      "Ġinterpret": 5216,
      "Ġmoved": 5217,
      "ev": 5218,
      "ĠResearch": 5219,
      "product": 5220,
      "Ġreplace": 5221,
      "Ġstraight": 5222,
      "acing": 5223,
      "Ġunivers": 5224,
      "hi": 5225,
      "Ġintroduced": 5226,
      "ĠBas": 5227,
      "ĠAfrican": 5228,
      "True": 5229,
      "levant": 5230,
      "field": 5231,
      "mess": 5232,
      "Ġfamilies": 5233,
      "ĠCir": 5234,
      "ĠEmp": 5235,
      "plication": 5236,
      "Ġnerv": 5237,
      "Ġinvent": 5238,
      "Ġadds": 5239,
      "ĠBank": 5240,
      "Ġfert": 5241,
      "Ġwave": 5242,
      "New": 5243,
      "prime": 5244,
      "ĠMag": 5245,
      "rors": 5246,
      "ĠRepublic": 5247,
      "oday": 5248,
      "pol": 5249,
      "Ġgent": 5250,
      "Ġvel": 5251,
      "Ġisland": 5252,
      "ĠSir": 5253,
      "Ġquar": 5254,
      "Ġkilled": 5255,
      "Ġsnow": 5256,
      "Ġmel": 5257,
      "amental": 5258,
      "Ġzur": 5259,
      "Ã¼n": 5260,
      "Ġnoted": 5261,
      "Ġbatter": 5262,
      "Ġfelt": 5263,
      "Ġgene": 5264,
      "Ġparticles": 5265,
      "Two": 5266,
      "Ġdrug": 5267,
      "Ġneut": 5268,
      "nes": 5269,
      "fil": 5270,
      "Ġfreedom": 5271,
      "itter": 5272,
      "Ġexpand": 5273,
      "Ġwalls": 5274,
      "Â¹": 5275,
      "Ġ'__": 5276,
      "Ġcontinues": 5277,
      "Ġsubstance": 5278,
      "height": 5279,
      "ĠWestern": 5280,
      "Ġdescribe": 5281,
      "Ġmort": 5282,
      "Ġwife": 5283,
      "lichen": 5284,
      "Ġliquid": 5285,
      "((": 5286,
      "ete": 5287,
      "Ġfloor": 5288,
      "burg": 5289,
      "Ġsolid": 5290,
      "Ġseven": 5291,
      "Ġnucle": 5292,
      "Ġnative": 5293,
      "Ġfailed": 5294,
      "trans": 5295,
      "Ġstone": 5296,
      "ulti": 5297,
      "Ġlandscape": 5298,
      "ĠParis": 5299,
      "ĠCanada": 5300,
      "Ġwonder": 5301,
      "inite": 5302,
      "Ġsuppl": 5303,
      "Ġtransform": 5304,
      "ĠMat": 5305,
      "ĠJapanese": 5306,
      "anc": 5307,
      "Ġphr": 5308,
      "oz": 5309,
      "Ġcandid": 5310,
      "ĠUse": 5311,
      "Ġodd": 5312,
      "rael": 5313,
      "Ġdepos": 5314,
      "Ġtreated": 5315,
      "Ġproperly": 5316,
      "diff": 5317,
      "Ġamounts": 5318,
      "Ġweap": 5319,
      "Ġappearance": 5320,
      "Ġready": 5321,
      "ĠJames": 5322,
      "Ġproviding": 5323,
      "UM": 5324,
      "?\"": 5325,
      "Ġconclud": 5326,
      "iten": 5327,
      "fficiency": 5328,
      "Ġtool": 5329,
      "Cont": 5330,
      "ĠMor": 5331,
      "Ġhypot": 5332,
      "Ġsend": 5333,
      "Ġcircumstances": 5334,
      "minutes": 5335,
      "othing": 5336,
      "ĠDecember": 5337,
      "aker": 5338,
      "Ġuniverse": 5339,
      "Ġforth": 5340,
      "reet": 5341,
      "ÑĢ": 5342,
      "Ä«": 5343,
      "Ġjo": 5344,
      "digit": 5345,
      "Ġdimens": 5346,
      "ĠPeople": 5347,
      "Ġsin": 5348,
      "Ġsomewhat": 5349,
      "Ġconscious": 5350,
      "Ġmostly": 5351,
      "Ġproposed": 5352,
      "iable": 5353,
      "names": 5354,
      "Ġfamous": 5355,
      "Ġtu": 5356,
      "sen": 5357,
      "IR": 5358,
      "Ġrelation": 5359,
      "Ġfurn": 5360,
      "Ġrect": 5361,
      "ĠAtt": 5362,
      "Ġimmune": 5363,
      "ĠMac": 5364,
      "inked": 5365,
      "duc": 5366,
      "Ġstarts": 5367,
      "Ġvisited": 5368,
      "ĠOctober": 5369,
      "Ø§": 5370,
      "ĠUnder": 5371,
      "ĠHar": 5372,
      "Ġcounts": 5373,
      "cules": 5374,
      "Ġcalculated": 5375,
      "Ġprefer": 5376,
      "jection": 5377,
      "pers": 5378,
      "Ġthousands": 5379,
      "Ġphone": 5380,
      "elled": 5381,
      "ras": 5382,
      "width": 5383,
      "dem": 5384,
      "uing": 5385,
      "Ġwelche": 5386,
      "Ġperformed": 5387,
      "sorted": 5388,
      "anging": 5389,
      "rates": 5390,
      "Ã©n": 5391,
      "Ġexternal": 5392,
      "Ġmerely": 5393,
      "ĠCS": 5394,
      "Ġhearing": 5395,
      "ĠIV": 5396,
      "riage": 5397,
      "Ġdecided": 5398,
      "Ġcra": 5399,
      "Ġpreviously": 5400,
      "cor": 5401,
      "ĠBel": 5402,
      "Ġoptions": 5403,
      "Ġcele": 5404,
      "Ġenemy": 5405,
      "tre": 5406,
      "UL": 5407,
      "Ġhorse": 5408,
      "ĠYes": 5409,
      "ĠMil": 5410,
      "Ġcere": 5411,
      "Ġdrive": 5412,
      "cm": 5413,
      "abetes": 5414,
      "Ġeasier": 5415,
      "abilities": 5416,
      "Ġagg": 5417,
      "__':": 5418,
      "Ġoccurred": 5419,
      "Ġwest": 5420,
      "Ġradio": 5421,
      "Ġprinciples": 5422,
      "ially": 5423,
      "ĠĠĠĠĠĠĠĠĠĠĠĠĠĠĠĠĠĠĠĠĠ": 5424,
      "aft": 5425,
      "Ġpayment": 5426,
      "Ġdoll": 5427,
      "Ġserve": 5428,
      "Ġsong": 5429,
      "ago": 5430,
      "points": 5431,
      "Ġchurch": 5432,
      "Ġtuple": 5433,
      "Ġ$\\": 5434,
      "Ġefforts": 5435,
      "AG": 5436,
      "Please": 5437,
      "unch": 5438,
      "RW": 5439,
      "letter": 5440,
      "oviet": 5441,
      "Ġsubstant": 5442,
      "zt": 5443,
      "iled": 5444,
      "Ġbuildings": 5445,
      "IP": 5446,
      "ĠHel": 5447,
      "weight": 5448,
      "ĠBlack": 5449,
      "017": 5450,
      "Ġstation": 5451,
      "esch": 5452,
      "iliar": 5453,
      "Ġband": 5454,
      "feet": 5455,
      "rat": 5456,
      "sq": 5457,
      "Ġcurrently": 5458,
      "Ġcharacteristics": 5459,
      "06": 5460,
      "Ġtemperatures": 5461,
      "Ġvote": 5462,
      "uses": 5463,
      "Ġgenes": 5464,
      "Ġfigures": 5465,
      "Ġdress": 5466,
      "oto": 5467,
      "Ġhuge": 5468,
      "rons": 5469,
      "ague": 5470,
      "Ġconsists": 5471,
      "Ġnoch": 5472,
      "Not": 5473,
      "issions": 5474,
      "150": 5475,
      "02": 5476,
      "Ġconstitution": 5477,
      "ĠBoth": 5478,
      "Ġfoss": 5479,
      "Ġcompre": 5480,
      "Ġradiation": 5481,
      "hetic": 5482,
      "wind": 5483,
      "Ġanx": 5484,
      "\"]": 5485,
      "rot": 5486,
      "Ġunc": 5487,
      "Ġonline": 5488,
      "While": 5489,
      "queue": 5490,
      "aren": 5491,
      "Ġmilk": 5492,
      "Ġwird": 5493,
      "ĠIts": 5494,
      "004": 5495,
      "za": 5496,
      "Ġcreation": 5497,
      "orrow": 5498,
      "Ġsud": 5499,
      "Ġends": 5500,
      "apers": 5501,
      "Ġdram": 5502,
      "distance": 5503,
      "character": 5504,
      "lam": 5505,
      "ĠSan": 5506,
      "BC": 5507,
      "ologies": 5508,
      "04": 5509,
      "ĠHigh": 5510,
      "Ġbow": 5511,
      "Ġregarding": 5512,
      "ieties": 5513,
      "Ġsettle": 5514,
      "band": 5515,
      "{\\": 5516,
      "59": 5517,
      "ĠMem": 5518,
      "ĠClass": 5519,
      "Ġinher": 5520,
      "Ġanyone": 5521,
      "Ġattached": 5522,
      "Ġkinds": 5523,
      "Ġpul": 5524,
      "yr": 5525,
      "ini": 5526,
      "oting": 5527,
      "Ġoverall": 5528,
      "Ġsuggests": 5529,
      "Ġindicate": 5530,
      "atically": 5531,
      "52": 5532,
      "ĠSun": 5533,
      "Ġchrom": 5534,
      "Ð¾Ð": 5535,
      "ocket": 5536,
      "rier": 5537,
      "76": 5538,
      "Ġvast": 5539,
      "Ġapproximately": 5540,
      "Ġ-=": 5541,
      "Ġtrial": 5542,
      "ĠĠĠĠĠĠĠĠĠĠĠĠĠĠĠĠĠĠĠĠ": 5543,
      "ĠÃ©t": 5544,
      "Ġprepar": 5545,
      "Ġpairs": 5546,
      "hors": 5547,
      "ĠrÃ©": 5548,
      "ĠCalculate": 5549,
      "Ġtrain": 5550,
      "Ġfalse": 5551,
      "va": 5552,
      "ĠGra": 5553,
      "Ġdoor": 5554,
      "hist": 5555,
      "ĠQue": 5556,
      "à¤Ĥ": 5557,
      "Ġmaster": 5558,
      "has": 5559,
      ">>": 5560,
      "ĠCentral": 5561,
      "opt": 5562,
      "Ġtail": 5563,
      "Here": 5564,
      "inger": 5565,
      "Ġappeared": 5566,
      "Ġtried": 5567,
      "51": 5568,
      "ĠCommittee": 5569,
      "aten": 5570,
      "csv": 5571,
      "Ġequival": 5572,
      "Ġopposite": 5573,
      "ĠDet": 5574,
      "ĠSuch": 5575,
      "Ġaccepted": 5576,
      "Ġfilm": 5577,
      "Ġcomplic": 5578,
      "roph": 5579,
      "Ġmob": 5580,
      "Ġcolors": 5581,
      "Ġoccasion": 5582,
      "ml": 5583,
      "Ġcombined": 5584,
      "onent": 5585,
      "ename": 5586,
      "rant": 5587,
      "cast": 5588,
      "ĠSchool": 5589,
      "ocation": 5590,
      "Ġinterests": 5591,
      "urity": 5592,
      "Ġdepict": 5593,
      "Ġselection": 5594,
      "ĠLin": 5595,
      "Ġmoon": 5596,
      "Ġoverl": 5597,
      "Ġexchange": 5598,
      "Ġtrig": 5599,
      "appe": 5600,
      "ĠOur": 5601,
      "ĠNovember": 5602,
      "ĠRussia": 5603,
      "Ġidentified": 5604,
      "Ġmorning": 5605,
      "Ãł": 5606,
      "road": 5607,
      "Ġing": 5608,
      "Ġagreement": 5609,
      "Ġexceed": 5610,
      "Ġded": 5611,
      "assert": 5612,
      "Ġhandle": 5613,
      "ĠSocial": 5614,
      "ĠSociety": 5615,
      "Ġattributes": 5616,
      "Ġdetailed": 5617,
      "Ġfib": 5618,
      "atom": 5619,
      "Ġemail": 5620,
      "Ġmotor": 5621,
      "Ġrevolution": 5622,
      "Ġserved": 5623,
      "xic": 5624,
      "Ġfle": 5625,
      "Ġmoral": 5626,
      "Ġarrange": 5627,
      "Ġsel": 5628,
      "Ġpromin": 5629,
      "Ġsigns": 5630,
      "Ġcausing": 5631,
      "600": 5632,
      "ĠHy": 5633,
      "ocol": 5634,
      "venue": 5635,
      "Ġhoriz": 5636,
      "itness": 5637,
      "Ġreb": 5638,
      "Ġvibrant": 5639,
      "Ġmembran": 5640,
      "Ġphase": 5641,
      "Ġserver": 5642,
      "Ġdivers": 5643,
      "Ġdesired": 5644,
      "aughter": 5645,
      "iced": 5646,
      "alls": 5647,
      "terior": 5648,
      "Ġselected": 5649,
      "osy": 5650,
      "Ġkids": 5651,
      "Ġbone": 5652,
      "Ġnit": 5653,
      "Ġbecoming": 5654,
      "sequence": 5655,
      "ocity": 5656,
      "Ġdangerous": 5657,
      "atur": 5658,
      "stood": 5659,
      "ĠJewish": 5660,
      "empl": 5661,
      "Ġprison": 5662,
      "Ġdepends": 5663,
      "Ġhappened": 5664,
      "á½": 5665,
      "Ġconsumption": 5666,
      "Ġparalle": 5667,
      "ns": 5668,
      "None": 5669,
      "iance": 5670,
      "Ġwidely": 5671,
      "idents": 5672,
      "Ġchanging": 5673,
      "Ġmeeting": 5674,
      "Ġrelief": 5675,
      "gin": 5676,
      "Acc": 5677,
      "Ġcontinuous": 5678,
      "iant": 5679,
      "Ġinvolves": 5680,
      "Ġconcerned": 5681,
      "SE": 5682,
      "Ġpositions": 5683,
      "pective": 5684,
      "Ġlooked": 5685,
      "Ġ['": 5686,
      "join": 5687,
      "ML": 5688,
      "Ġtwenty": 5689,
      "Ġclosed": 5690,
      "ĠSpanish": 5691,
      "apes": 5692,
      "Ġremained": 5693,
      "Ġimper": 5694,
      "Ġadvanced": 5695,
      "Ġrain": 5696,
      "Ġequation": 5697,
      "endment": 5698,
      "itled": 5699,
      "Ġpieces": 5700,
      "Ġhop": 5701,
      "otic": 5702,
      "ether": 5703,
      "ois": 5704,
      "Ġarms": 5705,
      "Ġspot": 5706,
      "ician": 5707,
      "ĠSoviet": 5708,
      "Ġleads": 5709,
      "wick": 5710,
      "Ġassist": 5711,
      "osph": 5712,
      "Ġprocessing": 5713,
      "oves": 5714,
      "Ġrail": 5715,
      "Ġmodule": 5716,
      "riv": 5717,
      "Ġemphas": 5718,
      "à¥ģ": 5719,
      "otion": 5720,
      "mes": 5721,
      "Ġlush": 5722,
      "ĠJews": 5723,
      "people": 5724,
      "!\")": 5725,
      "Ġgun": 5726,
      "54": 5727,
      "Ġnations": 5728,
      "Ġmarked": 5729,
      "Ġstored": 5730,
      "ca": 5731,
      "aign": 5732,
      "cons": 5733,
      "Ġsuc": 5734,
      "ĠArab": 5735,
      "ipher": 5736,
      "Ġlargely": 5737,
      "Ġthin": 5738,
      "using": 5739,
      "ĠFe": 5740,
      "po": 5741,
      "Ġattract": 5742,
      "Ġsolutions": 5743,
      "Ġforced": 5744,
      "liament": 5745,
      "Ġconstit": 5746,
      "reci": 5747,
      "ĠGeorge": 5748,
      "999": 5749,
      "07": 5750,
      "raction": 5751,
      "800": 5752,
      "Ġmountain": 5753,
      "ĠOnce": 5754,
      "Ġoperator": 5755,
      "Ġdrugs": 5756,
      "Ġclosely": 5757,
      "enced": 5758,
      "ture": 5759,
      "Ġ')": 5760,
      "Ġmoves": 5761,
      "orter": 5762,
      "003": 5763,
      "price": 5764,
      ":\",": 5765,
      "standing": 5766,
      "ĠRober": 5767,
      "53": 5768,
      "idae": 5769,
      "output": 5770,
      "Ġuniform": 5771,
      "03": 5772,
      "rog": 5773,
      "ĠMiss": 5774,
      "à¤¸": 5775,
      "Ġkill": 5776,
      "Ġsupported": 5777,
      "Figure": 5778,
      "Ġlooks": 5779,
      "rition": 5780,
      "Ġliterature": 5781,
      "ographic": 5782,
      "Ġcolumns": 5783,
      "Ġther": 5784,
      "Ġlibrary": 5785,
      "game": 5786,
      "employ": 5787,
      "ĠIsrael": 5788,
      "Ġlinear": 5789,
      "Ġinfect": 5790,
      "ulates": 5791,
      "*.": 5792,
      "Ġrequirements": 5793,
      "vi": 5794,
      "ĠWil": 5795,
      "rer": 5796,
      "Ġperman": 5797,
      "Ġsimpl": 5798,
      "ĠOrgan": 5799,
      "Ġexhib": 5800,
      "Ġcomparison": 5801,
      "rary": 5802,
      "Ġpros": 5803,
      "oken": 5804,
      "Ġexposure": 5805,
      "ola": 5806,
      "Ġeast": 5807,
      "Ġsudden": 5808,
      "bert": 5809,
      "Ġobtain": 5810,
      "ĠUN": 5811,
      "ĠAD": 5812,
      "Ġintended": 5813,
      "ĠSom": 5814,
      "Ġgentle": 5815,
      "reed": 5816,
      "Ġnovel": 5817,
      "Ġ\",": 5818,
      "Ġprepared": 5819,
      "Ġthousand": 5820,
      "run": 5821,
      "Ġ................": 5822,
      "Ġremark": 5823,
      "oration": 5824,
      "002": 5825,
      "rations": 5826,
      "Ġ(\"": 5827,
      "ĠTwo": 5828,
      "Ġpaint": 5829,
      "Ġpreced": 5830,
      "ocy": 5831,
      "rian": 5832,
      "Ġturtle": 5833,
      "step": 5834,
      "âĢĿ,": 5835,
      "Ġexplained": 5836,
      "Ġacts": 5837,
      "Ġbeautiful": 5838,
      "cope": 5839,
      "Ġcert": 5840,
      "ĠEvery": 5841,
      "ologist": 5842,
      "Ġcomments": 5843,
      "OM": 5844,
      "fol": 5845,
      "van": 5846,
      "Ġusage": 5847,
      "erk": 5848,
      "Ġsalt": 5849,
      "Ġentry": 5850,
      "ĠPers": 5851,
      "ĠSam": 5852,
      "essor": 5853,
      "Ġhosp": 5854,
      "Ġbear": 5855,
      "isch": 5856,
      "crete": 5857,
      "Ġtill": 5858,
      "Ġseparated": 5859,
      "ĠFebruary": 5860,
      "sk": 5861,
      "cal": 5862,
      "related": 5863,
      "ĠOver": 5864,
      "ĠVir": 5865,
      "Ġfaster": 5866,
      "Ġextreme": 5867,
      "Ġwaters": 5868,
      "Ġframe": 5869,
      "Ġgro": 5870,
      "âĢ¢": 5871,
      "Ġgenerated": 5872,
      "element": 5873,
      "Ġtroops": 5874,
      "Ġexplanation": 5875,
      "pal": 5876,
      "ession": 5877,
      "Î¼": 5878,
      ".),": 5879,
      "Ġconsiderable": 5880,
      "Ġemp": 5881,
      "Ġformula": 5882,
      "Ġwaves": 5883,
      "Ġstream": 5884,
      "Ġpron": 5885,
      "astern": 5886,
      "Ġwhatever": 5887,
      "Ġchann": 5888,
      "nel": 5889,
      "integ": 5890,
      "rt": 5891,
      "Ġadvance": 5892,
      "Ġmiles": 5893,
      "Ġvision": 5894,
      "Ġnorthern": 5895,
      "Ġpractical": 5896,
      "Ġcommunities": 5897,
      "ĠCouncil": 5898,
      "ĠâĢŀ": 5899,
      "Ġaspects": 5900,
      "RI": 5901,
      "write": 5902,
      ".__": 5903,
      "gest": 5904,
      "ĠLo": 5905,
      "ingly": 5906,
      "Ġexception": 5907,
      "Ġhtt": 5908,
      "ante": 5909,
      "Ġpretty": 5910,
      "Ġelectricity": 5911,
      "Ġje": 5912,
      "oir": 5913,
      "Ġfiled": 5914,
      "Ġmainly": 5915,
      "Ġneither": 5916,
      "Ġancest": 5917,
      "Ġfix": 5918,
      "ĠLatin": 5919,
      "ologists": 5920,
      "ĠCompany": 5921,
      "Ġdispl": 5922,
      "ortunately": 5923,
      "Ã¼ck": 5924,
      "Ġclim": 5925,
      "Ġprogramming": 5926,
      "ribe": 5927,
      "Ġspaces": 5928,
      "Ġexperiments": 5929,
      "perm": 5930,
      "ĠDay": 5931,
      "Ġspl": 5932,
      "ĠNor": 5933,
      "Ġdifficulty": 5934,
      "Ġflag": 5935,
      "Ġou": 5936,
      "Ġvoice": 5937,
      "ĠCa": 5938,
      "ĠTechn": 5939,
      "Ġstorage": 5940,
      "Ġsouthern": 5941,
      "Ġsuggested": 5942,
      "Ġimpl": 5943,
      "Ġfill": 5944,
      "020": 5945,
      "Ġsont": 5946,
      "Ġexposed": 5947,
      "ĠSk": 5948,
      "################": 5949,
      "Ġteaching": 5950,
      "Ġlose": 5951,
      "Ġbranch": 5952,
      "ĠTO": 5953,
      "Ġdepending": 5954,
      "Ġstatements": 5955,
      "ĠAustralia": 5956,
      "Ġpolic": 5957,
      "ĠRome": 5958,
      "Ġtechnique": 5959,
      "Do": 5960,
      "Ġreact": 5961,
      "ĠRich": 5962,
      "ressive": 5963,
      "Ġmeat": 5964,
      "Ġemployed": 5965,
      "ĠAssoci": 5966,
      "gans": 5967,
      "ĠAsia": 5968,
      "Ġmuscles": 5969,
      "racy": 5970,
      "eric": 5971,
      "ront": 5972,
      "aid": 5973,
      "person": 5974,
      "message": 5975,
      "ĠSec": 5976,
      "Ġbaby": 5977,
      "Ġaid": 5978,
      "ooth": 5979,
      "ura": 5980,
      "Ġmac": 5981,
      "Ġintelligence": 5982,
      "ĠOtherwise": 5983,
      "phabet": 5984,
      "Ġfundamental": 5985,
      "Ġrelevant": 5986,
      "onym": 5987,
      "Ġinstit": 5988,
      "ĠSmith": 5989,
      "comp": 5990,
      "Ġdigital": 5991,
      "Ġamb": 5992,
      "Ġprincipal": 5993,
      "à¤ķ": 5994,
      "Ġmission": 5995,
      "Ġalternative": 5996,
      "Ġquantity": 5997,
      "rid": 5998,
      "rine": 5999,
      "acent": 6000,
      "ĠMark": 6001,
      "Ġplaying": 6002,
      "Ġweeks": 6003,
      "Ġsolve": 6004,
      "roduction": 6005,
      "ĠInitial": 6006,
      "agraph": 6007,
      "Ġsupposed": 6008,
      "ĠNav": 6009,
      "ĠEin": 6010,
      "[-": 6011,
      "ĠSecond": 6012,
      "018": 6013,
      "wing": 6014,
      "Ġcomfort": 6015,
      "Ġtasks": 6016,
      "Ġsounds": 6017,
      "ĠSet": 6018,
      "section": 6019,
      "Ġca": 6020,
      "ĠEmpire": 6021,
      "Â·": 6022,
      "Ġvector": 6023,
      "Ġzwe": 6024,
      "Ġprev": 6025,
      "Ġfluid": 6026,
      "900": 6027,
      "ffee": 6028,
      "92": 6029,
      "Ġseemed": 6030,
      "ĠMass": 6031,
      "ĠInstitute": 6032,
      "Ġcontrolled": 6033,
      "Ġderived": 6034,
      "Ġgarden": 6035,
      "72": 6036,
      "Ġinterested": 6037,
      "Ġcapable": 6038,
      "digits": 6039,
      "Ġsys": 6040,
      "ĠPlan": 6041,
      "Bl": 6042,
      "PI": 6043,
      "Ġsuit": 6044,
      "Ġattempts": 6045,
      "Ġcorpor": 6046,
      "Ġwebsite": 6047,
      "ady": 6048,
      "Ġich": 6049,
      "Sp": 6050,
      "Ġstores": 6051,
      "Ġprofit": 6052,
      "Ġpolice": 6053,
      "ĠHind": 6054,
      "gt": 6055,
      "Ġbud": 6056,
      "Ġpush": 6057,
      "ĠPaul": 6058,
      "Ġbis": 6059,
      "Ġmodified": 6060,
      "Ġos": 6061,
      "Ġpref": 6062,
      "Ġhur": 6063,
      "Ġmanufacture": 6064,
      "Ġtypical": 6065,
      "amount": 6066,
      "hyd": 6067,
      "Ġaim": 6068,
      "ĠValue": 6069,
      "Ġminutes": 6070,
      "Ġmir": 6071,
      "ĠMich": 6072,
      "Ġopening": 6073,
      "ĠArmy": 6074,
      "Ġconcepts": 6075,
      "ello": 6076,
      "Ġordered": 6077,
      "Ġsehr": 6078,
      "inction": 6079,
      "[\"": 6080,
      "Ġkeys": 6081,
      "ĠName": 6082,
      "ificial": 6083,
      "ĠID": 6084,
      "Ġemployees": 6085,
      "cost": 6086,
      "Col": 6087,
      "Ġrough": 6088,
      "Ġpresident": 6089,
      "Ġideal": 6090,
      "box": 6091,
      "icians": 6092,
      "Ġov": 6093,
      "insert": 6094,
      "Ġreports": 6095,
      "Ġchapter": 6096,
      "Ġsubjects": 6097,
      "works": 6098,
      "Ġsurg": 6099,
      "Ġic": 6100,
      "Ġparameters": 6101,
      "\\[": 6102,
      "ena": 6103,
      "hered": 6104,
      "wood": 6105,
      "Ġmeasured": 6106,
      "Ġdesire": 6107,
      "ĠDon": 6108,
      "ĠMart": 6109,
      "Ġprinting": 6110,
      "Ġnutri": 6111,
      "vin": 6112,
      "Ġspent": 6113,
      "ĠMad": 6114,
      "Ġteachers": 6115,
      "Ġcore": 6116,
      "math": 6117,
      "mas": 6118,
      "Îµ": 6119,
      "However": 6120,
      "Ġofficers": 6121,
      "Ġdial": 6122,
      "ĠRussian": 6123,
      "Ġwish": 6124,
      "Ġnom": 6125,
      "rency": 6126,
      "Ġmur": 6127,
      "ĠDec": 6128,
      "ĠCam": 6129,
      "ĠLou": 6130,
      "olve": 6131,
      "Ġexcell": 6132,
      "ĠCharles": 6133,
      "Ġratio": 6134,
      "ums": 6135,
      "ellect": 6136,
      "AND": 6137,
      "ĠCivil": 6138,
      "Ġouter": 6139,
      "Ġelimin": 6140,
      "Ġcouple": 6141,
      "AY": 6142,
      "Ġconclusion": 6143,
      "eless": 6144,
      "Ġrefers": 6145,
      "cis": 6146,
      "Ġnone": 6147,
      "Ġabstract": 6148,
      "ĠMet": 6149,
      "Ġast": 6150,
      "Ġii": 6151,
      "ĠId": 6152,
      "Ġoperating": 6153,
      "Ġsexual": 6154,
      "Ġdefic": 6155,
      "Ġkid": 6156,
      "Ġallowing": 6157,
      "Ġabund": 6158,
      "etry": 6159,
      "ipe": 6160,
      "Ġthy": 6161,
      "ĠJournal": 6162,
      "Ġadults": 6163,
      "ĠHenry": 6164,
      "Ġfamiliar": 6165,
      "teen": 6166,
      "aph": 6167,
      "flo": 6168,
      "ĠPark": 6169,
      "Ġtriangle": 6170,
      "Ġbegins": 6171,
      "Ġcoal": 6172,
      "ĠSea": 6173,
      "ĠPost": 6174,
      "title": 6175,
      "Ġresist": 6176,
      "ulus": 6177,
      "Ġorganic": 6178,
      "Ġemployment": 6179,
      "Ġinstructions": 6180,
      "Ġdecisions": 6181,
      "ĠUsing": 6182,
      "irty": 6183,
      "ilit": 6184,
      "Ġneuro": 6185,
      "Ġbutton": 6186,
      "igned": 6187,
      "Ġassemb": 6188,
      "keit": 6189,
      "Ġdepression": 6190,
      "Ġrapidly": 6191,
      "lick": 6192,
      "ahl": 6193,
      "Ġduty": 6194,
      "ĠInternational": 6195,
      "ĠIns": 6196,
      "Ġdogs": 6197,
      "plt": 6198,
      "elements": 6199,
      "ounter": 6200,
      "Ġdisorder": 6201,
      "then": 6202,
      "Î¹": 6203,
      "oxide": 6204,
      "Ġtopic": 6205,
      "Ġvehicle": 6206,
      "Ġgal": 6207,
      "Ġkeeping": 6208,
      "Ġteach": 6209,
      "ĠTree": 6210,
      "ĠFurther": 6211,
      "Ġunderstood": 6212,
      "ado": 6213,
      "ĠRef": 6214,
      "Ġequivalent": 6215,
      "Ġsucceed": 6216,
      "ĠIsland": 6217,
      "Ġaw": 6218,
      "Ġrecorded": 6219,
      "square": 6220,
      "bi": 6221,
      "Ġclust": 6222,
      "rieved": 6223,
      "Ġsell": 6224,
      "Ġpractices": 6225,
      "Ġgenerates": 6226,
      "mic": 6227,
      "Ġsurrounding": 6228,
      "ounced": 6229,
      "Ġadopted": 6230,
      "ĠDiv": 6231,
      "qual": 6232,
      "ĠAny": 6233,
      "Ġstories": 6234,
      "Ġprocedure": 6235,
      "Ġprimarily": 6236,
      "ĠWhite": 6237,
      "ĠAp": 6238,
      "Ġplat": 6239,
      "Ġantib": 6240,
      "ĠBudd": 6241,
      "Ġemployee": 6242,
      "Ġsitting": 6243,
      "Ġoffered": 6244,
      "Ġconverts": 6245,
      "bles": 6246,
      "ny": 6247,
      "Ġperiods": 6248,
      "label": 6249,
      "Ġprove": 6250,
      "life": 6251,
      "isp": 6252,
      "Ġestimated": 6253,
      "Ġcav": 6254,
      "Ġsites": 6255,
      "Ġthor": 6256,
      "!\"": 6257,
      "Ġlongest": 6258,
      "Ġcontained": 6259,
      "âĺĲ": 6260,
      "Ġproportion": 6261,
      "Ġdiscussed": 6262,
      "Ġble": 6263,
      "Ġprobability": 6264,
      "Ġcomprehens": 6265,
      "ĠTem": 6266,
      "acific": 6267,
      "Let": 6268,
      "Ġsoldiers": 6269,
      "OW": 6270,
      "ocratic": 6271,
      "Ġshift": 6272,
      "ĠBen": 6273,
      "Ġcomponent": 6274,
      "Ġobservations": 6275,
      "Ġpig": 6276,
      "Ġvul": 6277,
      "Ġcenturies": 6278,
      "Ġidentity": 6279,
      "Ġdrawn": 6280,
      "Ġexpressed": 6281,
      "forms": 6282,
      "Ġmovements": 6283,
      "ĠGreen": 6284,
      "Ġphoto": 6285,
      "lege": 6286,
      "Ġleaving": 6287,
      "ĠCath": 6288,
      "Ġreleased": 6289,
      ".]": 6290,
      "Ġpossibly": 6291,
      "dule": 6292,
      "tage": 6293,
      "ĠWater": 6294,
      "ĠBur": 6295,
      "EP": 6296,
      "inity": 6297,
      "Ġpercentage": 6298,
      "chied": 6299,
      "aken": 6300,
      "Ġdomestic": 6301,
      "Ġindu": 6302,
      "First": 6303,
      "Ġbroken": 6304,
      "stronom": 6305,
      "Ġpas": 6306,
      "Ġconcentration": 6307,
      "sor": 6308,
      "Ġaccompl": 6309,
      "itors": 6310,
      "Ġdiscover": 6311,
      "Ġinstall": 6312,
      "Ġefficiency": 6313,
      "Ġstandards": 6314,
      "fit": 6315,
      "ipped": 6316,
      "olf": 6317,
      "liche": 6318,
      "Ġfirm": 6319,
      "OC": 6320,
      "Can": 6321,
      "Ġinjury": 6322,
      "ĠDistrict": 6323,
      "Ġvan": 6324,
      "Ġmolecules": 6325,
      "Ġchain": 6326,
      "Ġplastic": 6327,
      "Ġmonitor": 6328,
      "Med": 6329,
      "Int": 6330,
      "zing": 6331,
      "Ã©r": 6332,
      "ĠItal": 6333,
      "Ġspeaking": 6334,
      "ĠThomas": 6335,
      "Ġleaf": 6336,
      "ĠNode": 6337,
      "Ġsusp": 6338,
      "pected": 6339,
      "Ġpark": 6340,
      "Ġreversed": 6341,
      "param": 6342,
      "ĠSum": 6343,
      "Ġelev": 6344,
      "Ind": 6345,
      "vec": 6346,
      "Ġaccurate": 6347,
      "Ġthr": 6348,
      "Ġatom": 6349,
      "guess": 6350,
      "Ġunknown": 6351,
      "Ġfilter": 6352,
      "Ġcollected": 6353,
      "rogen": 6354,
      "Ġproof": 6355,
      "uable": 6356,
      "ĠIr": 6357,
      "Ġplayed": 6358,
      "IF": 6359,
      "Ġwestern": 6360,
      "eln": 6361,
      "Ġplain": 6362,
      "ivation": 6363,
      "Ġcos": 6364,
      "ĠAcad": 6365,
      "Ed": 6366,
      "ĠDel": 6367,
      "Ġboy": 6368,
      "Ġsubs": 6369,
      "Ġgone": 6370,
      "(\"\\": 6371,
      "ĠConstitution": 6372,
      "Ġapart": 6373,
      "Ġonto": 6374,
      "onia": 6375,
      "heit": 6376,
      "miles": 6377,
      "Ġcloud": 6378,
      "SON": 6379,
      "ĠCode": 6380,
      "Ġlies": 6381,
      "normal": 6382,
      "Ġproteins": 6383,
      "Ġarticles": 6384,
      "Ġstorm": 6385,
      "Ġparallel": 6386,
      "Ġru": 6387,
      "vas": 6388,
      "ita": 6389,
      "120": 6390,
      "orne": 6391,
      "Ġdiscovery": 6392,
      "pes": 6393,
      "ading": 6394,
      "Ġtwice": 6395,
      "Ġelectrical": 6396,
      "91": 6397,
      "Ġmatters": 6398,
      "Ġinstrument": 6399,
      "ĠAir": 6400,
      "Ġpoly": 6401,
      "ĠMary": 6402,
      "dat": 6403,
      "Ġnerve": 6404,
      "bet": 6405,
      "Ġexperiences": 6406,
      "Ġincom": 6407,
      "Ġgreatly": 6408,
      "Ġformal": 6409,
      "Ġdisci": 6410,
      "Ġdefe": 6411,
      "Ġseek": 6412,
      "ĠĠĠĠĠĠĠĠĊ": 6413,
      "Ġroots": 6414,
      "ĠFore": 6415,
      "Ġspecifically": 6416,
      "going": 6417,
      "pping": 6418,
      "Ġillness": 6419,
      "Ã¸": 6420,
      "ĠBet": 6421,
      "Ġ?": 6422,
      "Ġmedium": 6423,
      "ĠCr": 6424,
      "Ġsilver": 6425,
      "Ġannual": 6426,
      "Ġchosen": 6427,
      "Ġinfl": 6428,
      "Ġdetermines": 6429,
      "ruptcy": 6430,
      "uris": 6431,
      "Ġcelebr": 6432,
      "Ġclin": 6433,
      "aks": 6434,
      "target": 6435,
      "Ġplt": 6436,
      "ĠAnother": 6437,
      "bing": 6438,
      "Ġcrow": 6439,
      "rior": 6440,
      "Ġgames": 6441,
      "inder": 6442,
      "Americ": 6443,
      "train": 6444,
      "ĠdaÃŁ": 6445,
      "ATE": 6446,
      "zer": 6447,
      "á¼": 6448,
      "Ġcogn": 6449,
      "Ġships": 6450,
      "Ġbread": 6451,
      "Ġreasonable": 6452,
      "ĠMuslim": 6453,
      "cluding": 6454,
      "power": 6455,
      "ĠAv": 6456,
      "frame": 6457,
      "ĠMexico": 6458,
      "ĠOld": 6459,
      "Ġhorm": 6460,
      "ĠAtl": 6461,
      "Ġsed": 6462,
      "table": 6463,
      "62": 6464,
      "Ġsignificantly": 6465,
      "acht": 6466,
      "ASA": 6467,
      "Ġpassage": 6468,
      "ĠNumber": 6469,
      "larg": 6470,
      "ructure": 6471,
      "Ġowners": 6472,
      "Ġbranches": 6473,
      "ceived": 6474,
      "uting": 6475,
      "Ġplans": 6476,
      "ĠCenter": 6477,
      "Ġseed": 6478,
      "Ġconsideration": 6479,
      "args": 6480,
      "kes": 6481,
      "Ġleader": 6482,
      "Ġcampaign": 6483,
      "ĠCommun": 6484,
      "common": 6485,
      "ĠMuse": 6486,
      "Ġordinary": 6487,
      "Ġhouses": 6488,
      "Ġcompleted": 6489,
      "ude": 6490,
      "Ġadequ": 6491,
      "Ġ]": 6492,
      "illa": 6493,
      "oded": 6494,
      "writ": 6495,
      "Ġpopulations": 6496,
      "rences": 6497,
      "Ġorn": 6498,
      "ques": 6499,
      "Ġlit": 6500,
      "ui": 6501,
      "Ġnaturally": 6502,
      "Ġrub": 6503,
      "61": 6504,
      "Ġhun": 6505,
      "Ġcolour": 6506,
      "peror": 6507,
      "Ġpregn": 6508,
      "Ġpossibility": 6509,
      "Ã´": 6510,
      "Ã¶n": 6511,
      "ĠItaly": 6512,
      "Ġprofessional": 6513,
      "Ġunable": 6514,
      "Ġtherapy": 6515,
      "Ġgender": 6516,
      "ĠDu": 6517,
      "Ġanswers": 6518,
      "Rel": 6519,
      "billion": 6520,
      "Ġfindings": 6521,
      "Ġsmallest": 6522,
      "Ġcrim": 6523,
      "Ġcryst": 6524,
      "Ġeffectively": 6525,
      "Ġexplore": 6526,
      "ĠBay": 6527,
      "Ġabsolute": 6528,
      "hell": 6529,
      "ĠDefendant": 6530,
      "ĠKore": 6531,
      "Ġadministration": 6532,
      "ĠWik": 6533,
      "ĠMiddle": 6534,
      "ears": 6535,
      "Ġrelationships": 6536,
      "check": 6537,
      "Ġsustain": 6538,
      "Ġplayers": 6539,
      "ulating": 6540,
      "ĠWind": 6541,
      "ĠCy": 6542,
      "Ġvessels": 6543,
      "Ġdrawing": 6544,
      "Ġvillage": 6545,
      ",'": 6546,
      "Ġstick": 6547,
      "ĠMont": 6548,
      "Ġtum": 6549,
      "iveness": 6550,
      "Ġmanip": 6551,
      "Ġ'))": 6552,
      "101": 6553,
      "ona": 6554,
      "nums": 6555,
      "stein": 6556,
      "nic": 6557,
      "ansion": 6558,
      "OP": 6559,
      "ĠLife": 6560,
      "Ġfrag": 6561,
      "Ġextended": 6562,
      "Read": 6563,
      "Ġincorpor": 6564,
      "ĠLike": 6565,
      "Ġviews": 6566,
      "Ġassume": 6567,
      "Ġrecognized": 6568,
      "ĠSupp": 6569,
      "Am": 6570,
      "Ġwire": 6571,
      "ĠAlex": 6572,
      "ĠWell": 6573,
      "ĠDavid": 6574,
      "Ġstudied": 6575,
      "cerning": 6576,
      "Ġruns": 6577,
      "Ġflight": 6578,
      "ĠCounty": 6579,
      "anda": 6580,
      "ĠWork": 6581,
      "graph": 6582,
      "Ġdefine": 6583,
      "Ġradius": 6584,
      "Ġconqu": 6585,
      "Ġaccum": 6586,
      "even": 6587,
      "Ġcars": 6588,
      "Ġtube": 6589,
      "Ġaccounts": 6590,
      "019": 6591,
      "after": 6592,
      "ĠGoogle": 6593,
      "Ġsegment": 6594,
      "iat": 6595,
      "Ġsole": 6596,
      "abama": 6597,
      "Ġauthors": 6598,
      "lowing": 6599,
      "Ġdict": 6600,
      "Ġorganisms": 6601,
      "Ġpictures": 6602,
      "Ġfer": 6603,
      "Ġcircul": 6604,
      "Ġdensity": 6605,
      "Ġinvolve": 6606,
      "Ġconfig": 6607,
      "BI": 6608,
      "Ġsecure": 6609,
      "Ġstreet": 6610,
      "ĠLand": 6611,
      "ifier": 6612,
      "ĠĠĠĠĠĠĠĠĠĠĠĠĠĠĠĠĠĠĠĠĠĠ": 6613,
      "rich": 6614,
      "ĠCap": 6615,
      "Ġhus": 6616,
      "sup": 6617,
      "Ġlogic": 6618,
      "Ġtalking": 6619,
      "Ġflood": 6620,
      "Ġintellect": 6621,
      "ocracy": 6622,
      "Ġrank": 6623,
      "ribed": 6624,
      "ĠSecret": 6625,
      "Ġreader": 6626,
      "tion": 6627,
      "phal": 6628,
      "TS": 6629,
      "ĠOx": 6630,
      "Ġstages": 6631,
      "ĠDebt": 6632,
      "Che": 6633,
      "pper": 6634,
      "ĠChild": 6635,
      "Ġnecessarily": 6636,
      "rative": 6637,
      "Ġcompare": 6638,
      "Ġhit": 6639,
      "63": 6640,
      "Ġdecades": 6641,
      "ĠAS": 6642,
      "Ġfell": 6643,
      "ĠMount": 6644,
      "990": 6645,
      "iar": 6646,
      "Ġindicated": 6647,
      "ogram": 6648,
      "ĠChem": 6649,
      "izer": 6650,
      "ÏĤ": 6651,
      "Ġcritic": 6652,
      "More": 6653,
      "ashion": 6654,
      "à¥¤": 6655,
      "Ġze": 6656,
      "cycl": 6657,
      "Ġmanif": 6658,
      "ald": 6659,
      "Ġchallenge": 6660,
      "ãģ®": 6661,
      "Ġshared": 6662,
      "Ġreduction": 6663,
      "ĠTime": 6664,
      "var": 6665,
      "Ġhydrogen": 6666,
      "Ġdirected": 6667,
      "ifications": 6668,
      "ishment": 6669,
      "Ġindicates": 6670,
      "Ġknows": 6671,
      "ĠDar": 6672,
      "Ġurban": 6673,
      "Ġmagnetic": 6674,
      "Ġcomposed": 6675,
      "Ġexclus": 6676,
      "orney": 6677,
      "Ġconsequences": 6678,
      "ĠAus": 6679,
      "show": 6680,
      "just": 6681,
      "ĠStand": 6682,
      "versal": 6683,
      "Ġdrop": 6684,
      "strip": 6685,
      "ontal": 6686,
      "ĠExt": 6687,
      "Ïģ": 6688,
      "Ġtrop": 6689,
      "Most": 6690,
      "250": 6691,
      "Sub": 6692,
      "iginal": 6693,
      "Die": 6694,
      "Ġphilosophy": 6695,
      "Ġpassing": 6696,
      "itan": 6697,
      "Ġprojects": 6698,
      "MP": 6699,
      "Ġmechanism": 6700,
      "CC": 6701,
      "idel": 6702,
      "ael": 6703,
      "oved": 6704,
      "Ġlimits": 6705,
      "pi": 6706,
      "Ã©rie": 6707,
      "Ġeinem": 6708,
      "ĠDer": 6709,
      "Ġmerg": 6710,
      "ĠJava": 6711,
      "aa": 6712,
      "Ġjustice": 6713,
      "roid": 6714,
      "fish": 6715,
      "ye": 6716,
      "09": 6717,
      "Out": 6718,
      "ĠWeb": 6719,
      "Ġaccel": 6720,
      "group": 6721,
      "ĠEduc": 6722,
      "Of": 6723,
      "ĠSou": 6724,
      "ĠVers": 6725,
      "Ġrecommended": 6726,
      "how": 6727,
      "cience": 6728,
      "Ġsituations": 6729,
      "ĠDesc": 6730,
      "Ġverb": 6731,
      "Ġinhab": 6732,
      "Ġflex": 6733,
      "Ġrid": 6734,
      "Ġrespectively": 6735,
      "ĠLeg": 6736,
      "ĠOnly": 6737,
      "Ġdepicting": 6738,
      "Ġthoughts": 6739,
      "Ġnormally": 6740,
      "arks": 6741,
      "ĠJer": 6742,
      "Ne": 6743,
      "ÂŃ": 6744,
      "Ġaren": 6745,
      "ima": 6746,
      "Ġpolicies": 6747,
      "Id": 6748,
      "Ġplane": 6749,
      "student": 6750,
      "Doc": 6751,
      "Ġhelped": 6752,
      "Ġeinen": 6753,
      "wide": 6754,
      "Ġped": 6755,
      "False": 6756,
      "puter": 6757,
      "Ġpages": 6758,
      "Ġwriter": 6759,
      "Ġtheore": 6760,
      "Ġring": 6761,
      "ĠSol": 6762,
      "Ġinteract": 6763,
      "Ġgle": 6764,
      "Ġengaged": 6765,
      "Ġbiological": 6766,
      "ĠWhere": 6767,
      "ĠCat": 6768,
      "cium": 6769,
      "Ġjudge": 6770,
      "vari": 6771,
      "ĠLu": 6772,
      "Ġcatch": 6773,
      "ureau": 6774,
      "ubes": 6775,
      "enen": 6776,
      "Ġproduces": 6777,
      "ĠProgram": 6778,
      "Ġlinks": 6779,
      "Ġiniti": 6780,
      "Ġpink": 6781,
      "sole": 6782,
      "elif": 6783,
      "ooking": 6784,
      "Ġmissing": 6785,
      "west": 6786,
      "Ġorgans": 6787,
      "Ġfest": 6788,
      "ĠSl": 6789,
      "Ġbind": 6790,
      "Ġemotional": 6791,
      "ancing": 6792,
      "Ġhappy": 6793,
      "Ġdieser": 6794,
      "eder": 6795,
      "agon": 6796,
      "ircraft": 6797,
      "ĠJe": 6798,
      "ĠOffice": 6799,
      "igt": 6800,
      "Ġhero": 6801,
      "ĠHam": 6802,
      "Ġdecrease": 6803,
      "Ġturns": 6804,
      "Ġinstances": 6805,
      "Ġwhereas": 6806,
      "Ġfruits": 6807,
      "ĠAlabama": 6808,
      "Ġenh": 6809,
      "Ġclick": 6810,
      "Ġstret": 6811,
      "SA": 6812,
      "ĠDevelop": 6813,
      "Ġorders": 6814,
      ".')": 6815,
      "Ġbanks": 6816,
      "Ġlegs": 6817,
      "Ġmovie": 6818,
      "Ġcoffee": 6819,
      "Ġunion": 6820,
      "ville": 6821,
      "ĠEar": 6822,
      "OD": 6823,
      "Ġneighbor": 6824,
      "Ġmetab": 6825,
      "Ġcomposition": 6826,
      ".âĢĻ": 6827,
      "Ġregist": 6828,
      "Ġcircuit": 6829,
      "characters": 6830,
      "Ġhyper": 6831,
      "Ġcontents": 6832,
      "lambda": 6833,
      "Ġslowly": 6834,
      "Ġgel": 6835,
      "ĠExpl": 6836,
      "Ġdirectory": 6837,
      "iture": 6838,
      "antly": 6839,
      "Ġshel": 6840,
      "ĠExample": 6841,
      "Ġlisted": 6842,
      "Ġevident": 6843,
      "ĠSche": 6844,
      "Ġsorts": 6845,
      "ĠService": 6846,
      "aded": 6847,
      "move": 6848,
      "Ġconducted": 6849,
      "Ġadm": 6850,
      "}{": 6851,
      "Ġattribute": 6852,
      "Ġguide": 6853,
      "Ġtermin": 6854,
      "Ġvac": 6855,
      "yself": 6856,
      "Ġvitamin": 6857,
      "ĠPet": 6858,
      "called": 6859,
      "ĠSenate": 6860,
      "à¤¦": 6861,
      "Ġ\"__": 6862,
      "Ġcriminal": 6863,
      "Ġappreci": 6864,
      "Ġclient": 6865,
      "\"{": 6866,
      "Ġsoul": 6867,
      "alysis": 6868,
      "Ġcards": 6869,
      "Ġduplic": 6870,
      "ĠLog": 6871,
      "Ġinstitutions": 6872,
      "Ġwur": 6873,
      "ano": 6874,
      "Ġlas": 6875,
      "month": 6876,
      "una": 6877,
      "ĠMo": 6878,
      "Ġattacks": 6879,
      "EX": 6880,
      "Part": 6881,
      "Ġmes": 6882,
      "Ġexperienced": 6883,
      "Ġye": 6884,
      "Ġimmediate": 6885,
      "Ġunter": 6886,
      "ĠRad": 6887,
      "ĠInde": 6888,
      "Ġlands": 6889,
      "mann": 6890,
      "ĠKn": 6891,
      "THE": 6892,
      "Ġdismiss": 6893,
      "Ġgar": 6894,
      "Ret": 6895,
      "anguage": 6896,
      "ĠPacific": 6897,
      "ser": 6898,
      "ĠInstead": 6899,
      "ĠMa": 6900,
      "Ġmamm": 6901,
      "Many": 6902,
      "ĠCalculates": 6903,
      "Ġsen": 6904,
      "Ġhandling": 6905,
      "Although": 6906,
      "icate": 6907,
      "Ġillustration": 6908,
      "Ġsan": 6909,
      "Ġdisplays": 6910,
      "Ġusual": 6911,
      "Ġhal": 6912,
      "Ġstem": 6913,
      "ĠNature": 6914,
      "Per": 6915,
      "ĠElect": 6916,
      "Ġexplains": 6917,
      "Ġlic": 6918,
      "__\":": 6919,
      "Ġperforms": 6920,
      "Ġregarded": 6921,
      "Ġproducing": 6922,
      "Ġchlor": 6923,
      "Ġerrors": 6924,
      "ĠNote": 6925,
      "Ġdiese": 6926,
      "Ġsplit": 6927,
      "imental": 6928,
      "oking": 6929,
      "ĠLear": 6930,
      "Ġanxiety": 6931,
      "degrees": 6932,
      "Another": 6933,
      "vest": 6934,
      "Ġviolence": 6935,
      "faces": 6936,
      "card": 6937,
      "Ġjour": 6938,
      "ĠYet": 6939,
      "Ġessay": 6940,
      "Ġwitness": 6941,
      "Ġwants": 6942,
      "Ġphrase": 6943,
      "rank": 6944,
      "ĠCollege": 6945,
      "ani": 6946,
      "rig": 6947,
      "iana": 6948,
      "Ġoptim": 6949,
      "Solution": 6950,
      "Ġlob": 6951,
      "Ġdespite": 6952,
      "Ġneck": 6953,
      "Ġspend": 6954,
      "Ġsight": 6955,
      "gent": 6956,
      "}')": 6957,
      "rep": 6958,
      "Ġseg": 6959,
      "ĠBro": 6960,
      "ĠMicro": 6961,
      "oured": 6962,
      "Ġmountains": 6963,
      "usr": 6964,
      "Ġequally": 6965,
      "Ġmillions": 6966,
      "Ġmedicine": 6967,
      "()`": 6968,
      "ĠÂ£": 6969,
      "Ġsteel": 6970,
      "su": 6971,
      "Ġsick": 6972,
      "Ġplease": 6973,
      "erator": 6974,
      "Ġdors": 6975,
      "Ġgew": 6976,
      "Ġstrict": 6977,
      "hn": 6978,
      "ĠType": 6979,
      "âĢĺ": 6980,
      "othe": 6981,
      "Ġpull": 6982,
      "ali": 6983,
      "dec": 6984,
      "Ġcamera": 6985,
      "Ġcup": 6986,
      "ĠUK": 6987,
      "Ġinstruction": 6988,
      "abin": 6989,
      "Ġsuperior": 6990,
      "Ġdin": 6991,
      "Ġcounsel": 6992,
      "Ġterritory": 6993,
      "area": 6994,
      "grade": 6995,
      "Ġreplaced": 6996,
      "#!": 6997,
      "Ġpray": 6998,
      "Ġchart": 6999,
      "Ġreducing": 7000,
      "Ġstom": 7001,
      "Leave": 7002,
      "Ġrein": 7003,
      "ĠTex": 7004,
      "Ġabsence": 7005,
      "Ġdocuments": 7006,
      "ario": 7007,
      "Ġexcellent": 7008,
      "ĠLouis": 7009,
      "swer": 7010,
      "ota": 7011,
      "Ġ[\"": 7012,
      "this": 7013,
      "Ġtouch": 7014,
      "oly": 7015,
      "keys": 7016,
      "Ġparagraph": 7017,
      "Ġtaught": 7018,
      "ĠEs": 7019,
      "Ġdanger": 7020,
      "à¤ĥ": 7021,
      "Ġelectron": 7022,
      "!!": 7023,
      "Ġstaff": 7024,
      "aset": 7025,
      "bst": 7026,
      "bid": 7027,
      "Ġcorrectly": 7028,
      "agen": 7029,
      "Ġdisappe": 7030,
      "Ġagreed": 7031,
      "sal": 7032,
      "ctors": 7033,
      "km": 7034,
      "Ġresolution": 7035,
      "hÃ¤": 7036,
      "ipedia": 7037,
      "980": 7038,
      "xx": 7039,
      "Ġhousehold": 7040,
      "Ġtour": 7041,
      "ĠPo": 7042,
      "Ġfly": 7043,
      "ctic": 7044,
      "Ġdestroyed": 7045,
      "Ġaccompan": 7046,
      "Ġpy": 7047,
      "Ġseeds": 7048,
      "PA": 7049,
      "Ġraw": 7050,
      "Ġstrategy": 7051,
      "Ġlayers": 7052,
      "edy": 7053,
      "isse": 7054,
      "dictionary": 7055,
      "Ste": 7056,
      "Ġvaluable": 7057,
      "Ã¶s": 7058,
      "ĠRobert": 7059,
      "ng": 7060,
      "ĠSpain": 7061,
      "Ġaxis": 7062,
      "ĠHuman": 7063,
      "Ġdepart": 7064,
      "Ġgirl": 7065,
      "Ġsubstances": 7066,
      "Ġlaid": 7067,
      "Ġtechnical": 7068,
      "ymph": 7069,
      "months": 7070,
      "Ġwalking": 7071,
      "ailed": 7072,
      "Ġdisch": 7073,
      "aze": 7074,
      "PS": 7075,
      "Ġfeelings": 7076,
      "creen": 7077,
      "icul": 7078,
      "Ġresponsibility": 7079,
      "Ġobst": 7080,
      "umes": 7081,
      "cut": 7082,
      "Ġtall": 7083,
      "bes": 7084,
      "heses": 7085,
      "orph": 7086,
      "ione": 7087,
      "Ġgray": 7088,
      "Ġmarriage": 7089,
      "Ġspiritual": 7090,
      "Ġgranted": 7091,
      "aked": 7092,
      "Ġvom": 7093,
      "Ġinputs": 7094,
      "Ġrocks": 7095,
      "Ġproved": 7096,
      "Ġjobs": 7097,
      "ener": 7098,
      "ua": 7099,
      "Ġhundreds": 7100,
      "Ġconcerning": 7101,
      "itÃ©": 7102,
      "Ġagency": 7103,
      "Ġorange": 7104,
      "Ġban": 7105,
      "bound": 7106,
      "Ġescape": 7107,
      "ĠIll": 7108,
      "Ġfairly": 7109,
      "Ġtoler": 7110,
      "********": 7111,
      "remove": 7112,
      "ĠGal": 7113,
      "Ġoriginally": 7114,
      "Ġavec": 7115,
      "abled": 7116,
      "Ġevil": 7117,
      "andon": 7118,
      "Ġcomputers": 7119,
      "ÙĦ": 7120,
      "Ġshif": 7121,
      "opher": 7122,
      "Ġtells": 7123,
      "ĠPublic": 7124,
      "irk": 7125,
      "Ġfourth": 7126,
      "Ġminute": 7127,
      "Ġanalog": 7128,
      "oids": 7129,
      "lets": 7130,
      "Ġfro": 7131,
      "Ġdiameter": 7132,
      "Ġsubstring": 7133,
      "Ġdisput": 7134,
      "ĠMuseum": 7135,
      "Ġsmooth": 7136,
      "Ġfrequent": 7137,
      "lie": 7138,
      "oles": 7139,
      "roke": 7140,
      "Ġsod": 7141,
      "ĠEp": 7142,
      "Ġarrived": 7143,
      "ĠSenator": 7144,
      "Ġborder": 7145,
      "Ġdeclared": 7146,
      "ught": 7147,
      "Ġbones": 7148,
      "Ġvertical": 7149,
      "Ġcarrying": 7150,
      "coordin": 7151,
      "oman": 7152,
      "Ġdelay": 7153,
      "ahr": 7154,
      "Ġpresc": 7155,
      "ĠWy": 7156,
      "eria": 7157,
      "ĠSing": 7158,
      "ername": 7159,
      "sey": 7160,
      "App": 7161,
      "ĠFol": 7162,
      "ĠGood": 7163,
      "kin": 7164,
      "Ġdaughter": 7165,
      "ĠALJ": 7166,
      "ĠParty": 7167,
      "tur": 7168,
      "comb": 7169,
      "mid": 7170,
      "throp": 7171,
      "Ġpra": 7172,
      "ĠFin": 7173,
      "Ġtele": 7174,
      "Ġgram": 7175,
      "Ġsacr": 7176,
      "Ġsummary": 7177,
      "Ġcrime": 7178,
      "bild": 7179,
      "ourse": 7180,
      "ĠOR": 7181,
      "bel": 7182,
      "kl": 7183,
      "Ġgrown": 7184,
      "Ġsamples": 7185,
      "ĠProfessor": 7186,
      "Other": 7187,
      "www": 7188,
      "Ġinsurance": 7189,
      "Ġgoals": 7190,
      "Ġmillion": 7191,
      "May": 7192,
      "ibus": 7193,
      "utch": 7194,
      "RIC": 7195,
      "ĠBoard": 7196,
      "flow": 7197,
      "such": 7198,
      "Ġenum": 7199,
      "bits": 7200,
      "law": 7201,
      "Ġinterior": 7202,
      "Ġstrongly": 7203,
      "iate": 7204,
      "Ġcompens": 7205,
      "eper": 7206,
      "Ġmixed": 7207,
      "Ġpermanent": 7208,
      "Ġfarmers": 7209,
      "ĠStreet": 7210,
      "orses": 7211,
      "RA": 7212,
      ")]": 7213,
      "ĠDiff": 7214,
      "Def": 7215,
      "ĠLabor": 7216,
      "Ġdecide": 7217,
      "Ġworse": 7218,
      "Ġalter": 7219,
      "Ġcoordinates": 7220,
      "Ġimproved": 7221,
      "rait": 7222,
      "ĠCH": 7223,
      "initely": 7224,
      "info": 7225,
      "Ġfossil": 7226,
      "Ġsignals": 7227,
      "Ġcas": 7228,
      "uten": 7229,
      "Ġmultip": 7230,
      "Ġcharacteristic": 7231,
      "ĠFort": 7232,
      "Ġagricultural": 7233,
      "Ġvoltage": 7234,
      "det": 7235,
      "Comm": 7236,
      "Ġsecondary": 7237,
      "cers": 7238,
      "Â²": 7239,
      "Ġseeing": 7240,
      "ĠInternet": 7241,
      ".-": 7242,
      "ĠHand": 7243,
      "71": 7244,
      "pred": 7245,
      "Ġsubt": 7246,
      "Ġsections": 7247,
      "Ġvelocity": 7248,
      "Ġfighting": 7249,
      "Dr": 7250,
      "Ġju": 7251,
      "ensis": 7252,
      "Ġstruggle": 7253,
      "ichen": 7254,
      "ses": 7255,
      "Ġtraffic": 7256,
      "Ġelectro": 7257,
      "Ġgradually": 7258,
      "Ġoffers": 7259,
      "Ġpython": 7260,
      "ĠArticle": 7261,
      "According": 7262,
      "Ġjuris": 7263,
      "Ġsweet": 7264,
      "ĠBook": 7265,
      "940": 7266,
      "?âĢĿ": 7267,
      "Ġentitled": 7268,
      "Stud": 7269,
      "ushed": 7270,
      "Ġmassive": 7271,
      "orous": 7272,
      "Ġpurchase": 7273,
      "aine": 7274,
      "Ġjournal": 7275,
      "ibilities": 7276,
      "lung": 7277,
      "Ġspin": 7278,
      "Ġmessages": 7279,
      "ĠTH": 7280,
      "Ġmanage": 7281,
      "Ġholds": 7282,
      "Ġliver": 7283,
      "Ġemissions": 7284,
      "Ġlegisl": 7285,
      "Ġheap": 7286,
      "Ġcomplexity": 7287,
      "amily": 7288,
      "Ġvegetables": 7289,
      "Ġmyself": 7290,
      "obal": 7291,
      "960": 7292,
      "Ġdescribes": 7293,
      "Ġassigned": 7294,
      "Ġcarefully": 7295,
      "ba": 7296,
      "Ġdisorders": 7297,
      "ĠLong": 7298,
      "Ġblog": 7299,
      "Ġ}": 7300,
      "Ġaircraft": 7301,
      "ĠSpace": 7302,
      "process": 7303,
      "ala": 7304,
      "Ġingred": 7305,
      "Ġvs": 7306,
      "Ġafford": 7307,
      "rey": 7308,
      "omy": 7309,
      "Ġinvestment": 7310,
      "Ġchecking": 7311,
      "diction": 7312,
      "ĠInf": 7313,
      "Ġembry": 7314,
      "istan": 7315,
      "^{": 7316,
      "ĠAssociation": 7317,
      "Ġsuitable": 7318,
      "Ġpointed": 7319,
      "Ġshot": 7320,
      "Ġpetition": 7321,
      "ĠRetrieved": 7322,
      "ĠSup": 7323,
      "Ġagent": 7324,
      "Ġphysics": 7325,
      "ĠHT": 7326,
      "Ġinvestigation": 7327,
      "ĠDan": 7328,
      "Ġtaxes": 7329,
      "Ġimmig": 7330,
      "Ġacad": 7331,
      "Ġsuffer": 7332,
      "Ġexpensive": 7333,
      "Ġphysi": 7334,
      "Ġsurvive": 7335,
      "ĠØ": 7336,
      "Ġdecimal": 7337,
      "erer": 7338,
      "Ġreject": 7339,
      "shaped": 7340,
      "tical": 7341,
      "rating": 7342,
      "Ġneur": 7343,
      "Ġdemonstrate": 7344,
      "Ġrecognize": 7345,
      "IA": 7346,
      "Ġperspective": 7347,
      "Ġspecimens": 7348,
      "seconds": 7349,
      "ictions": 7350,
      "Ġalphabet": 7351,
      "ki": 7352,
      "Ġcalling": 7353,
      "Ġvow": 7354,
      "ditional": 7355,
      "Ġzone": 7356,
      "Ġessentially": 7357,
      "ĠCSV": 7358,
      "care": 7359,
      "cap": 7360,
      "#!/": 7361,
      "itudes": 7362,
      "ĠConf": 7363,
      "Ġplanning": 7364,
      "ĠThose": 7365,
      "Ġhence": 7366,
      "asp": 7367,
      "Ġtal": 7368,
      "Ġnoise": 7369,
      "Ġshop": 7370,
      "Ġorganizations": 7371,
      "Ġdil": 7372,
      "tenance": 7373,
      "Ġdust": 7374,
      "69": 7375,
      "ommen": 7376,
      "Ġapparently": 7377,
      "adian": 7378,
      "ĠGold": 7379,
      "Ġcrops": 7380,
      "ensus": 7381,
      "Ġgeomet": 7382,
      "Ġpil": 7383,
      "Ġcommittee": 7384,
      "Ġmarks": 7385,
      "olars": 7386,
      "Ġdefense": 7387,
      "Ġthrow": 7388,
      "ĠPerson": 7389,
      "ĠBureau": 7390,
      "Ġbehaviour": 7391,
      "stone": 7392,
      "Ġconsistent": 7393,
      "Ïĥ": 7394,
      "Ġresource": 7395,
      "Ġfunds": 7396,
      "pack": 7397,
      "Ġconven": 7398,
      "Ġopened": 7399,
      "Ġmembrane": 7400,
      "Ġending": 7401,
      "cknow": 7402,
      "Ġfunctional": 7403,
      "ĠTreat": 7404,
      "Ġaux": 7405,
      "ĠMer": 7406,
      "Ġtruly": 7407,
      "Ġtransition": 7408,
      "Ġera": 7409,
      "ï¼": 7410,
      "Ġcentre": 7411,
      "Ġremoving": 7412,
      "Ġimplic": 7413,
      "uh": 7414,
      "73": 7415,
      "ĠRh": 7416,
      "Ġom": 7417,
      "Ġgross": 7418,
      "Ġdesert": 7419,
      "nodes": 7420,
      "ĠIP": 7421,
      "Ġcategory": 7422,
      "ati": 7423,
      "Ġmachines": 7424,
      "Ġtheories": 7425,
      "Ġpainting": 7426,
      "}_": 7427,
      "Ġhem": 7428,
      "Ġvariation": 7429,
      "Ġaffects": 7430,
      "icular": 7431,
      "ubble": 7432,
      "Ġconsult": 7433,
      "Ġhelpful": 7434,
      "Ġassumed": 7435,
      "alog": 7436,
      "ĠRevolution": 7437,
      "Ġconvent": 7438,
      "ften": 7439,
      "wischen": 7440,
      "ĠFrank": 7441,
      "110": 7442,
      "claim": 7443,
      "ulin": 7444,
      "Ã§": 7445,
      "Ġtechnologies": 7446,
      "rÃ¤": 7447,
      "Ġcorn": 7448,
      "Ġq": 7449,
      "tri": 7450,
      "Ġwrites": 7451,
      "Å«": 7452,
      "ĠNet": 7453,
      "ĠÂ»": 7454,
      "Ġgall": 7455,
      "ĠVirgin": 7456,
      "Sch": 7457,
      "Ġofficials": 7458,
      "Ġvital": 7459,
      "Ġexpansion": 7460,
      "quad": 7461,
      "del": 7462,
      "à¥ĭ": 7463,
      "istent": 7464,
      "ÏĢ": 7465,
      "Ãªme": 7466,
      "Ġreactions": 7467,
      "970": 7468,
      "erals": 7469,
      "950": 7470,
      "ĠWill": 7471,
      "Ġwear": 7472,
      "EST": 7473,
      "ĠLab": 7474,
      "Ġparas": 7475,
      "Ġske": 7476,
      "BER": 7477,
      "etary": 7478,
      "ĠJose": 7479,
      "Ġganz": 7480,
      "à¤ª": 7481,
      "Ġinsects": 7482,
      "Ġrend": 7483,
      "ĠDebtor": 7484,
      "ĠEv": 7485,
      "Ġdistur": 7486,
      "Class": 7487,
      "Ġhomes": 7488,
      "when": 7489,
      "74": 7490,
      "Ġdiagram": 7491,
      "Ġaccident": 7492,
      "haust": 7493,
      "Ġcollege": 7494,
      "Ġexpert": 7495,
      "Ġoutdo": 7496,
      "Ġhole": 7497,
      "Ġsuccessfully": 7498,
      "VI": 7499,
      "ĠNews": 7500,
      "Ġchemicals": 7501,
      "ĠBot": 7502,
      "Ġacids": 7503,
      "supers": 7504,
      "Ġcourts": 7505,
      "Ġimplementation": 7506,
      "ĠProv": 7507,
      "Ġbattery": 7508,
      "Ġplays": 7509,
      "Ġissued": 7510,
      "LA": 7511,
      "Ġnumpy": 7512,
      "ĠCON": 7513,
      "Ġnarr": 7514,
      "Ġopposed": 7515,
      "Ð»": 7516,
      "Ġsheet": 7517,
      "create": 7518,
      "acts": 7519,
      "Ġell": 7520,
      "Ġsuffering": 7521,
      "Car": 7522,
      "ĠEconom": 7523,
      "Ġexecution": 7524,
      "Ġkit": 7525,
      ".:": 7526,
      "Ġconsole": 7527,
      "redit": 7528,
      "Ġfashion": 7529,
      "Ġorient": 7530,
      "Ġaccuracy": 7531,
      "ĠNASA": 7532,
      "Ġachieved": 7533,
      "Ġdre": 7534,
      "parts": 7535,
      "imer": 7536,
      "Ġarranged": 7537,
      "ĠRE": 7538,
      "Ġshut": 7539,
      "ĠEss": 7540,
      "drop": 7541,
      "81": 7542,
      "Ġsubstantial": 7543,
      "998": 7544,
      "Ġweapons": 7545,
      "free": 7546,
      "Ġhusband": 7547,
      "ercase": 7548,
      "allow": 7549,
      "Ġimmun": 7550,
      "Ġpump": 7551,
      "UD": 7552,
      "Ġdiabetes": 7553,
      "Ġdependent": 7554,
      "letters": 7555,
      "ref": 7556,
      "Ġprotected": 7557,
      "Ġmoist": 7558,
      "vant": 7559,
      "Ġresemb": 7560,
      "ĠSection": 7561,
      "930": 7562,
      "iac": 7563,
      "amber": 7564,
      "ools": 7565,
      "Ġtrouble": 7566,
      "ĠJul": 7567,
      "Ġhar": 7568,
      "umps": 7569,
      "icious": 7570,
      "zel": 7571,
      "Ġtot": 7572,
      "Ġrenew": 7573,
      "circ": 7574,
      "nam": 7575,
      "Our": 7576,
      "theless": 7577,
      "ĠScot": 7578,
      "superscript": 7579,
      "Ġchronic": 7580,
      "frequ": 7581,
      "Ġpropos": 7582,
      "Ġconfir": 7583,
      "Ġinnov": 7584,
      "Ġcloser": 7585,
      "Ġcombinations": 7586,
      "Ġcompetition": 7587,
      "Ġpayments": 7588,
      "Ġrig": 7589,
      "Ġdynamic": 7590,
      "Ġmarried": 7591,
      "ĠÂłĊ": 7592,
      "textsuperscript": 7593,
      "Ġá¼": 7594,
      "Ġstomach": 7595,
      "Ġces": 7596,
      "à®": 7597,
      "Ġsurvey": 7598,
      "Name": 7599,
      "icit": 7600,
      "Ġconverted": 7601,
      "Ġlabour": 7602,
      "Ġgravity": 7603,
      "operation": 7604,
      "otton": 7605,
      "Ġsatell": 7606,
      "Ġwilling": 7607,
      "Ġfur": 7608,
      "ailing": 7609,
      "Since": 7610,
      "Ġsubsequent": 7611,
      "Ġblocks": 7612,
      "++": 7613,
      "ĠReply": 7614,
      "Ġneutral": 7615,
      "Ġengineering": 7616,
      "non": 7617,
      "ga": 7618,
      "Ġcris": 7619,
      "nat": 7620,
      "Ġscores": 7621,
      "Ġgovernments": 7622,
      "DF": 7623,
      "stream": 7624,
      "method": 7625,
      "Ġauthorities": 7626,
      "Ġtor": 7627,
      "Ġelection": 7628,
      "Ġguar": 7629,
      "auc": 7630,
      "ĠDoc": 7631,
      "ĠAI": 7632,
      "hether": 7633,
      "Ġoblig": 7634,
      "ĠFre": 7635,
      "button": 7636,
      "Ġtiny": 7637,
      "Ġappeal": 7638,
      "ĠTexas": 7639,
      "asant": 7640,
      "Ġassistance": 7641,
      "Ġsurgery": 7642,
      "Ġchromos": 7643,
      "Ġobjective": 7644,
      "ĠRob": 7645,
      "Ġartificial": 7646,
      "connect": 7647,
      "heap": 7648,
      "ker": 7649,
      "avor": 7650,
      "ĠâĢ¦": 7651,
      "password": 7652,
      "ĠXX": 7653,
      "Post": 7654,
      "Ġstable": 7655,
      "ounded": 7656,
      "ĠMen": 7657,
      "Ġwarming": 7658,
      "Ġedges": 7659,
      "Ġdioxide": 7660,
      "ĠTw": 7661,
      "Ġaqu": 7662,
      "cd": 7663,
      "Ġnutrition": 7664,
      "HT": 7665,
      "rants": 7666,
      "ĠOh": 7667,
      "180": 7668,
      "Ġobservation": 7669,
      "Ġsales": 7670,
      "Ġnam": 7671,
      "ĠMah": 7672,
      "Ġcontribute": 7673,
      "Ġchallenges": 7674,
      "QL": 7675,
      "ĠCatholic": 7676,
      "Ġcurve": 7677,
      "Ġmathematical": 7678,
      "Sim": 7679,
      "Ġtoxic": 7680,
      "Ġmaintained": 7681,
      "ĠExper": 7682,
      "Ġaccord": 7683,
      "Ġdistances": 7684,
      "Ġintroduction": 7685,
      "prove": 7686,
      "dimens": 7687,
      "only": 7688,
      "kan": 7689,
      "Ġguard": 7690,
      "ivot": 7691,
      "atum": 7692,
      "Ġopportunities": 7693,
      "Ġtun": 7694,
      "ĠFlor": 7695,
      "Ġourselves": 7696,
      "Ġbreast": 7697,
      "iated": 7698,
      "Ġclot": 7699,
      "Ġroof": 7700,
      "ahren": 7701,
      "Ġskill": 7702,
      "SS": 7703,
      "Ġclock": 7704,
      "</": 7705,
      "Ġcultures": 7706,
      "elta": 7707,
      "Ġarrest": 7708,
      "Ġsensitive": 7709,
      "Ġdistributed": 7710,
      "Ġscheme": 7711,
      "Ġaccompanied": 7712,
      "ypes": 7713,
      "Ġdrinking": 7714,
      "ĠTor": 7715,
      "ĠOcean": 7716,
      "ĠItalian": 7717,
      "plan": 7718,
      "Ġjoin": 7719,
      "efficient": 7720,
      "ãĢĤ": 7721,
      "Ġultimately": 7722,
      "pa": 7723,
      "Ġbag": 7724,
      "Ġabandon": 7725,
      "Ġfertil": 7726,
      "84": 7727,
      "Ġforming": 7728,
      "opes": 7729,
      "Ġrhy": 7730,
      "ieder": 7731,
      "Ġacknow": 7732,
      "overy": 7733,
      "iche": 7734,
      "oving": 7735,
      "Ġtooth": 7736,
      "ĠBre": 7737,
      "Ġaer": 7738,
      "ipping": 7739,
      "bridge": 7740,
      "ĠJack": 7741,
      "Ġinterface": 7742,
      "fibonacci": 7743,
      "Ġexamination": 7744,
      "ĠMax": 7745,
      "jud": 7746,
      "Ġcandidate": 7747,
      "Ġfont": 7748,
      "ighter": 7749,
      "Ġwet": 7750,
      "Ġswim": 7751,
      "enc": 7752,
      "linked": 7753,
      "wa": 7754,
      "Ġlock": 7755,
      "born": 7756,
      "255": 7757,
      "uant": 7758,
      "Ġmarine": 7759,
      "ĠPlease": 7760,
      "Ġdestruction": 7761,
      "Ġgran": 7762,
      "MS": 7763,
      "Ġestimate": 7764,
      "Ġgather": 7765,
      "Ġwis": 7766,
      "DC": 7767,
      "ĠHome": 7768,
      "Ġdriving": 7769,
      "Ġconcerns": 7770,
      "mented": 7771,
      "ĠBible": 7772,
      "ĠAng": 7773,
      "Ġperforming": 7774,
      "Ġjoined": 7775,
      "Ġencourage": 7776,
      "Ġuniversal": 7777,
      "imen": 7778,
      "Ġupdate": 7779,
      "Ġinqu": 7780,
      "Ġ('": 7781,
      "dep": 7782,
      "style": 7783,
      "Ġsought": 7784,
      "Note": 7785,
      "Ġtested": 7786,
      "Ġages": 7787,
      "utely": 7788,
      "Ġrisks": 7789,
      "Ġforg": 7790,
      "ih": 7791,
      "inus": 7792,
      "123": 7793,
      "rium": 7794,
      "Ġroute": 7795,
      "herent": 7796,
      "ĠUSA": 7797,
      "Rec": 7798,
      "Ġpars": 7799,
      "Ġunus": 7800,
      "Ġwir": 7801,
      "Te": 7802,
      "Ġkle": 7803,
      "ĠNum": 7804,
      "Ġjump": 7805,
      "ĠAbout": 7806,
      "Ġgrew": 7807,
      "Ġlang": 7808,
      "Ġapplies": 7809,
      "Ġpolitics": 7810,
      "Ġcircular": 7811,
      "yal": 7812,
      "Ġdeux": 7813,
      "Ġmonthly": 7814,
      "ĠAtlantic": 7815,
      "Ġdivide": 7816,
      "asser": 7817,
      "Ġeastern": 7818,
      "ĠFigure": 7819,
      "Ġinterpretation": 7820,
      "kins": 7821,
      "Ġrent": 7822,
      "ĠReport": 7823,
      "unc": 7824,
      "Ġvehicles": 7825,
      "Ġinterview": 7826,
      "Ġorganized": 7827,
      "Ġdestination": 7828,
      "Test": 7829,
      "regular": 7830,
      "Ġrespir": 7831,
      "Ġindices": 7832,
      "Ġexit": 7833,
      "ĠIre": 7834,
      "Ġhidden": 7835,
      "Ġthou": 7836,
      "ĠLes": 7837,
      "Frame": 7838,
      "ĠCarol": 7839,
      "Ġgest": 7840,
      "instance": 7841,
      "osystem": 7842,
      "Ġmargin": 7843,
      "icated": 7844,
      "Ġinteraction": 7845,
      "icip": 7846,
      "Ġmenu": 7847,
      "raint": 7848,
      "ede": 7849,
      "asty": 7850,
      "Ġextend": 7851,
      "ipt": 7852,
      "Ġextensive": 7853,
      "Ġsi": 7854,
      "Ġgalax": 7855,
      "79": 7856,
      "82": 7857,
      "During": 7858,
      "Ġbeings": 7859,
      "Ġweights": 7860,
      "700": 7861,
      "920": 7862,
      "ouds": 7863,
      "Ġidentical": 7864,
      "ĠTer": 7865,
      "Get": 7866,
      "average": 7867,
      "cos": 7868,
      "ĠDoes": 7869,
      "Ġmechanical": 7870,
      "Ġquantum": 7871,
      "ells": 7872,
      "ĠSouthern": 7873,
      "Ġaudience": 7874,
      "Ġfellow": 7875,
      "Ġnutrients": 7876,
      "996": 7877,
      "Ġhospital": 7878,
      "Ġsmart": 7879,
      "Ġbridge": 7880,
      "ĠAR": 7881,
      "Ġrising": 7882,
      "Ġpotentially": 7883,
      "Where": 7884,
      "END": 7885,
      "Ã±": 7886,
      "ĠScient": 7887,
      "ĠEnd": 7888,
      "Ġsupplies": 7889,
      "Ġadequate": 7890,
      "Ġsam": 7891,
      "uv": 7892,
      "Ġhint": 7893,
      "mi": 7894,
      "Ġblind": 7895,
      "Ġdimensions": 7896,
      "Ġheads": 7897,
      "Ġdomain": 7898,
      "archy": 7899,
      "Ġintention": 7900,
      "Ġinfections": 7901,
      "Ġconstantly": 7902,
      "Ġconnections": 7903,
      "athy": 7904,
      "ĠSecurity": 7905,
      "Ġastronom": 7906,
      "ĠWho": 7907,
      "egen": 7908,
      "ĠPower": 7909,
      "anta": 7910,
      "ĠWood": 7911,
      "Ġwen": 7912,
      "tic": 7913,
      "Ġbudget": 7914,
      "Ġcomplicated": 7915,
      "tery": 7916,
      "ĠStr": 7917,
      "Ġbene": 7918,
      "Ġextension": 7919,
      "Ġassessment": 7920,
      "Ġlegislation": 7921,
      "occ": 7922,
      "Ġnous": 7923,
      "Ġhorses": 7924,
      "Ġran": 7925,
      "url": 7926,
      "111": 7927,
      "Ġsynd": 7928,
      "Ġstuff": 7929,
      "Ġasks": 7930,
      "RES": 7931,
      "Ġminim": 7932,
      "oren": 7933,
      "ĠPsych": 7934,
      "acebook": 7935,
      "ĠVen": 7936,
      "direct": 7937,
      "Ġtaste": 7938,
      "there": 7939,
      "tons": 7940,
      "eline": 7941,
      "Ðº": 7942,
      "Ġsalary": 7943,
      "Ġdiscipl": 7944,
      "ĠPan": 7945,
      ",âĢĶ": 7946,
      "83": 7947,
      "tuple": 7948,
      "Ġatoms": 7949,
      "Ġpor": 7950,
      "Ġshapes": 7951,
      "Ġpand": 7952,
      "Ġstriking": 7953,
      "icago": 7954,
      "BN": 7955,
      "ĠAT": 7956,
      "Ġcyl": 7957,
      "RL": 7958,
      "emb": 7959,
      "997": 7960,
      "lib": 7961,
      "athered": 7962,
      "press": 7963,
      "Data": 7964,
      "abs": 7965,
      "Ġagriculture": 7966,
      "ĠRoyal": 7967,
      "Ġenters": 7968,
      "Ġagents": 7969,
      "aire": 7970,
      "loss": 7971,
      "ĠSie": 7972,
      "ĠSecretary": 7973,
      "Ġrevealed": 7974,
      "Ġho": 7975,
      "Ġmyth": 7976,
      "Ġdebate": 7977,
      "reshold": 7978,
      "Ġappointed": 7979,
      "Ġunderlying": 7980,
      "abric": 7981,
      "ĠMake": 7982,
      "Ġcharged": 7983,
      "Ġcrisis": 7984,
      "ĠFrancis": 7985,
      "isen": 7986,
      "Pe": 7987,
      "Ġinstruments": 7988,
      "uts": 7989,
      "Ġadvice": 7990,
      "Ġconfidence": 7991,
      "Ġpool": 7992,
      "ĠMethod": 7993,
      "Ġearn": 7994,
      "Ġphosph": 7995,
      "perty": 7996,
      "Ġpalindrome": 7997,
      "ĠFibonacci": 7998,
      "ĠAdminist": 7999,
      "LC": 8000,
      "Ġnine": 8001,
      "Ġjourney": 8002,
      "Ġdirections": 8003,
      "lik": 8004,
      "Ġorbit": 8005,
      "inking": 8006,
      "Ġhung": 8007,
      "Ġpolar": 8008,
      "display": 8009,
      "abul": 8010,
      "Ġfasc": 8011,
      "Ġcareer": 8012,
      "craft": 8013,
      "ĠDen": 8014,
      "neg": 8015,
      "aneous": 8016,
      "ĠNorthern": 8017,
      "Ġcorner": 8018,
      "grad": 8019,
      "ĠVI": 8020,
      "Ġcorrel": 8021,
      "Ġasking": 8022,
      "Ġnest": 8023,
      "etch": 8024,
      "eting": 8025,
      "Ġlowest": 8026,
      "ĠToday": 8027,
      "Ġkeeps": 8028,
      "ĠHaw": 8029,
      "Ġislands": 8030,
      "ĠTable": 8031,
      "ĠMill": 8032,
      "Ġsein": 8033,
      "Ġog": 8034,
      "edge": 8035,
      "ĠFood": 8036,
      "Ġgerm": 8037,
      "Ġindependence": 8038,
      "Ġconj": 8039,
      "perature": 8040,
      "Ġgentleman": 8041,
      "rices": 8042,
      "ucose": 8043,
      "Ġdeliver": 8044,
      "Ġsymbols": 8045,
      "balance": 8046,
      "Ġeducational": 8047,
      "close": 8048,
      "osc": 8049,
      "Ġconsciousness": 8050,
      "John": 8051,
      "iem": 8052,
      "Ġsharp": 8053,
      "clos": 8054,
      "Ġstrategies": 8055,
      "Ġended": 8056,
      "ĠOrder": 8057,
      "Ġsurvival": 8058,
      "Ġresponses": 8059,
      "uce": 8060,
      "Ġwa": 8061,
      "ework": 8062,
      "binary": 8063,
      "Ġfraction": 8064,
      "American": 8065,
      "ART": 8066,
      "Ġgrad": 8067,
      "Ġrose": 8068,
      "eller": 8069,
      "uzzle": 8070,
      "Ġregularly": 8071,
      "Ġrarely": 8072,
      "ĠValueError": 8073,
      "return": 8074,
      "Ġpoem": 8075,
      "iii": 8076,
      "oul": 8077,
      "Ġrecept": 8078,
      "ĠSupreme": 8079,
      "Ġcompounds": 8080,
      "Ġpollution": 8081,
      "IX": 8082,
      "Ġreaches": 8083,
      "oster": 8084,
      "Ġinternet": 8085,
      "rimination": 8086,
      "ologie": 8087,
      "vision": 8088,
      "Ġdefect": 8089,
      "ĠParliament": 8090,
      "Ġcommit": 8091,
      "izz": 8092,
      "fri": 8093,
      "ogether": 8094,
      "lers": 8095,
      "Ġintellectual": 8096,
      "Ġven": 8097,
      "ditionally": 8098,
      "ivated": 8099,
      "she": 8100,
      "Ġmeth": 8101,
      "Ġcustomer": 8102,
      "Ġpup": 8103,
      "Ġdecline": 8104,
      "Ġnervous": 8105,
      "Ġexhaust": 8106,
      "Ġmales": 8107,
      "Ġanterior": 8108,
      "Ġreserv": 8109,
      "Equal": 8110,
      "Ġmaintenance": 8111,
      "MM": 8112,
      "Ġprofession": 8113,
      "ĠFar": 8114,
      "Ġrural": 8115,
      "Ġcareful": 8116,
      "Ġwindows": 8117,
      "Ġsignificance": 8118,
      "mo": 8119,
      "rypted": 8120,
      "Ġenable": 8121,
      "Ġjurisdiction": 8122,
      "Ġimagine": 8123,
      "ĠLake": 8124,
      "Ġgenus": 8125,
      "Ġconsidering": 8126,
      "ĠGovern": 8127,
      "Pr": 8128,
      "opic": 8129,
      "ohl": 8130,
      "esis": 8131,
      "ĠEastern": 8132,
      "Ġprominent": 8133,
      "plex": 8134,
      "enger": 8135,
      "base": 8136,
      "'))": 8137,
      "Ġtransmission": 8138,
      "ĠKh": 8139,
      "uilding": 8140,
      "contin": 8141,
      "Ġseconds": 8142,
      "empty": 8143,
      "Ġcoin": 8144,
      "ĠCirc": 8145,
      "Ġphenomenon": 8146,
      "Ġconce": 8147,
      "uis": 8148,
      "rh": 8149,
      "ĠIreland": 8150,
      "âĢĻ.": 8151,
      "Ġapproaches": 8152,
      "yes": 8153,
      "Then": 8154,
      "ĠTre": 8155,
      "Ġflower": 8156,
      "speed": 8157,
      "Ġcozy": 8158,
      "Â§": 8159,
      "Ġabdom": 8160,
      "Ġlateral": 8161,
      "tersuch": 8162,
      "window": 8163,
      "Ref": 8164,
      "Ġlabels": 8165,
      "mean": 8166,
      "ĠNOT": 8167,
      "Ġsteam": 8168,
      "ĠÙ": 8169,
      "Ġintest": 8170,
      "ĠChapter": 8171,
      "ĠVict": 8172,
      "Ġinstruct": 8173,
      "ĠBab": 8174,
      "================": 8175,
      "sim": 8176,
      "ĠÂłĠÂłĠÂłĠÂł": 8177,
      "Ã¶rper": 8178,
      "sl": 8179,
      "Ġbeliefs": 8180,
      "Google": 8181,
      "unct": 8182,
      "Ġposterior": 8183,
      "GE": 8184,
      "Ġplanets": 8185,
      "\"))": 8186,
      "Ġupdated": 8187,
      "Ġclaimed": 8188,
      "Ġstead": 8189,
      "Number": 8190,
      "Ġtables": 8191,
      "Ġexpenses": 8192,
      "Ġchoices": 8193,
      "ni": 8194,
      "Ġalleged": 8195,
      "uan": 8196,
      "fÃ¼": 8197,
      "Ġfold": 8198,
      "Ġamendment": 8199,
      "Ġtank": 8200,
      "cyclop": 8201,
      "integer": 8202,
      "Ġmehr": 8203,
      "plete": 8204,
      "ĠColumb": 8205,
      "ãĢģ": 8206,
      "Ġtout": 8207,
      "Ġcontrols": 8208,
      "Ġthorough": 8209,
      "through": 8210,
      "spec": 8211,
      "float": 8212,
      "Ġshorter": 8213,
      "Ġindustries": 8214,
      "Ġtissues": 8215,
      "multi": 8216,
      "iday": 8217,
      "ĠPage": 8218,
      "Ġbath": 8219,
      "Ġeld": 8220,
      "ĠDefendants": 8221,
      "Ġincreasingly": 8222,
      "dist": 8223,
      "Ġconcrete": 8224,
      "Ġcurrency": 8225,
      "mus": 8226,
      "Ġhypothesis": 8227,
      "beg": 8228,
      "Ġoccupied": 8229,
      "ĠAN": 8230,
      "Ġwasn": 8231,
      "ĠPC": 8232,
      "ĠHa": 8233,
      "Ġcollections": 8234,
      "ĠFound": 8235,
      "mill": 8236,
      "Ġconsumer": 8237,
      "ĠKingdom": 8238,
      "Ge": 8239,
      "ĠEducation": 8240,
      "Ġadjacent": 8241,
      "Ġattach": 8242,
      "Ġmand": 8243,
      "Ġblow": 8244,
      "Ġcontrovers": 8245,
      "Ġ'''": 8246,
      "real": 8247,
      "ĠSil": 8248,
      "Ġhaben": 8249,
      "sts": 8250,
      "ĠMedic": 8251,
      "Ġcapture": 8252,
      "open": 8253,
      "Ġfeedback": 8254,
      "oples": 8255,
      "Ġinhib": 8256,
      "Ġfemales": 8257,
      "Ġnewsp": 8258,
      "ĠNov": 8259,
      "odd": 8260,
      "Ġduties": 8261,
      "isons": 8262,
      "Ġcust": 8263,
      "Ġopposition": 8264,
      "Ġcontem": 8265,
      "hav": 8266,
      "apped": 8267,
      "ĠPoint": 8268,
      "ĠScott": 8269,
      "Ġgut": 8270,
      "ĠInformation": 8271,
      "ĠOutput": 8272,
      "Ġment": 8273,
      "oderm": 8274,
      "ĠMoreover": 8275,
      "ulum": 8276,
      "Ġparameter": 8277,
      "aska": 8278,
      "Ġfounded": 8279,
      "Ġgods": 8280,
      "Ġcrop": 8281,
      "Ġemotions": 8282,
      "Ġforget": 8283,
      "ĠNatural": 8284,
      "Ġabuse": 8285,
      "Ġenforce": 8286,
      "sent": 8287,
      "ĠBa": 8288,
      "Ġna": 8289,
      "positions": 8290,
      "ĠOpen": 8291,
      "ĠFunction": 8292,
      "Ġrecognition": 8293,
      "ĠFOR": 8294,
      "palindrome": 8295,
      "elben": 8296,
      "Ġstood": 8297,
      "Ġreform": 8298,
      "Hello": 8299,
      "Ġphotograph": 8300,
      "Ġwine": 8301,
      "Ġfalls": 8302,
      "Ã¤nge": 8303,
      "ĠEngine": 8304,
      "Ġoperate": 8305,
      "rection": 8306,
      "Ġpromote": 8307,
      "Ġundert": 8308,
      "Ġfacilities": 8309,
      "fill": 8310,
      "Ġturning": 8311,
      "iert": 8312,
      "ĠMrs": 8313,
      "Ġhorizontal": 8314,
      "ATES": 8315,
      "estions": 8316,
      "NE": 8317,
      "Ġinstitution": 8318,
      "Ġpoison": 8319,
      "à§": 8320,
      "Ġexplo": 8321,
      "Ġdates": 8322,
      "Ġsuffered": 8323,
      "iders": 8324,
      "Ġzum": 8325,
      "Ġdiffer": 8326,
      "yer": 8327,
      "Ġbuff": 8328,
      "Ġexperts": 8329,
      "cule": 8330,
      "Ġconversation": 8331,
      "ĠDas": 8332,
      "ĠSat": 8333,
      "ĠKar": 8334,
      "Ġdescript": 8335,
      "Ġprohib": 8336,
      "Ġdegrees": 8337,
      "hour": 8338,
      "onds": 8339,
      "Ġprovisions": 8340,
      "Ġkann": 8341,
      "Ġvo": 8342,
      "Ġarbit": 8343,
      "Ã®": 8344,
      "inches": 8345,
      "Ġpropag": 8346,
      "Des": 8347,
      "Ġcommitted": 8348,
      "Ġnegot": 8349,
      "Ġhabits": 8350,
      "imeter": 8351,
      "half": 8352,
      "Ġobserve": 8353,
      "Ġtranslation": 8354,
      "ĠLine": 8355,
      "Man": 8356,
      "ĠâĺĲ": 8357,
      "ateral": 8358,
      "Ġnetworks": 8359,
      "Ġassociation": 8360,
      "Type": 8361,
      "Ġhelping": 8362,
      "Ġallerg": 8363,
      "oa": 8364,
      "apse": 8365,
      "Ġdetermination": 8366,
      "Ġboat": 8367,
      "Ġpd": 8368,
      "Ġ\"\"": 8369,
      "Ġtrained": 8370,
      "model": 8371,
      "Ġverschied": 8372,
      "Ġcategories": 8373,
      "ygame": 8374,
      "Ġlocations": 8375,
      "oric": 8376,
      "Ġnin": 8377,
      "ruit": 8378,
      "Ġmeasurement": 8379,
      "culiar": 8380,
      "Ġfault": 8381,
      "Ġlesson": 8382,
      "zil": 8383,
      "Ġbeauty": 8384,
      "Ġcaught": 8385,
      "Ġconsent": 8386,
      "Ġmeasurements": 8387,
      "Ġdivisor": 8388,
      "Ġhardly": 8389,
      "Ġdepartment": 8390,
      "Ġod": 8391,
      "HER": 8392,
      "Ġtrav": 8393,
      "Ġapproved": 8394,
      "ĠRichard": 8395,
      "Ġvariations": 8396,
      "shape": 8397,
      "Ġpriority": 8398,
      "Jan": 8399,
      "ĠReview": 8400,
      "three": 8401,
      "Ġharv": 8402,
      "ĠNon": 8403,
      "}\\": 8404,
      "Ġdifficulties": 8405,
      "Ġintervals": 8406,
      "Ġdealing": 8407,
      "Ġwings": 8408,
      "Ġautomatically": 8409,
      "Ġwing": 8410,
      "pie": 8411,
      "Ġexpressions": 8412,
      "Art": 8413,
      "ĠWal": 8414,
      "ivered": 8415,
      "Ġcognitive": 8416,
      "Ġconsequence": 8417,
      "ARD": 8418,
      "were": 8419,
      "Ġcash": 8420,
      "Ġpapers": 8421,
      "Ġrelax": 8422,
      "Ġyouth": 8423,
      "gers": 8424,
      "Example": 8425,
      "rance": 8426,
      "icken": 8427,
      "Ġswitch": 8428,
      "irds": 8429,
      "aneously": 8430,
      "ĠSimilar": 8431,
      "ptions": 8432,
      "ĠCommon": 8433,
      "pattern": 8434,
      "(-": 8435,
      "Ġchair": 8436,
      "Ġfung": 8437,
      "cho": 8438,
      "Ġdollars": 8439,
      "ä¸": 8440,
      "ĠMel": 8441,
      "post": 8442,
      "adow": 8443,
      "Ġdistinguished": 8444,
      "rimin": 8445,
      "Val": 8446,
      "Ġkil": 8447,
      "itual": 8448,
      "Ġought": 8449,
      "iler": 8450,
      "generate": 8451,
      "Ġfiling": 8452,
      "Ġtropical": 8453,
      "Ġdar": 8454,
      "ĠCapt": 8455,
      "Ġowner": 8456,
      "ĠBrown": 8457,
      "Ġputting": 8458,
      "Ġsettlement": 8459,
      "Ġpresents": 8460,
      "ĠJoseph": 8461,
      "replace": 8462,
      "abil": 8463,
      "uli": 8464,
      "fortunately": 8465,
      "Ġchol": 8466,
      "irable": 8467,
      "elve": 8468,
      "isk": 8469,
      "Ġsuggesting": 8470,
      "apor": 8471,
      "Ġstrike": 8472,
      "Ġtip": 8473,
      "Ġtens": 8474,
      "mem": 8475,
      "verty": 8476,
      "usamm": 8477,
      "ORD": 8478,
      "sis": 8479,
      "uct": 8480,
      "Ġprivile": 8481,
      "Ġdimin": 8482,
      "Ġcette": 8483,
      "Ġprovision": 8484,
      "python": 8485,
      "Ġlots": 8486,
      "Ġclothing": 8487,
      "Ġster": 8488,
      "hent": 8489,
      "ithms": 8490,
      "Ġnavigation": 8491,
      "page": 8492,
      "ĠPop": 8493,
      "Ġloan": 8494,
      "yles": 8495,
      "Ġarrangement": 8496,
      "Ġrender": 8497,
      "dra": 8498,
      "Ġvulner": 8499,
      "á¹ĩ": 8500,
      "Ġsevent": 8501,
      "aration": 8502,
      "Ġsupplement": 8503,
      "Ġoccurrences": 8504,
      "Ġampl": 8505,
      "Ġconstructed": 8506,
      "seud": 8507,
      "ĠPrin": 8508,
      "Ġmedian": 8509,
      "Ġconversion": 8510,
      "Find": 8511,
      "ĠChecks": 8512,
      "Ġpoverty": 8513,
      "Ġfactorial": 8514,
      "Ġcollabor": 8515,
      "agues": 8516,
      "Ġrevenue": 8517,
      "Ġfocused": 8518,
      "ĠBd": 8519,
      "Ġhttp": 8520,
      "igma": 8521,
      "Ġcutting": 8522,
      "Me": 8523,
      "Ġdorsal": 8524,
      "Ġcort": 8525,
      "ĠTreeNode": 8526,
      "endar": 8527,
      "Ġcord": 8528,
      "Ġquad": 8529,
      "Ġresulted": 8530,
      "Ġinfected": 8531,
      "Ġmerge": 8532,
      "Ġpin": 8533,
      "Ġdistinction": 8534,
      "Ġelectronic": 8535,
      "Ġceremon": 8536,
      "alpha": 8537,
      "Ġsentences": 8538,
      "Ġcommunicate": 8539,
      "Ġlogical": 8540,
      "Ġdigest": 8541,
      "Ġcolonies": 8542,
      "gle": 8543,
      "isters": 8544,
      "Ġgrain": 8545,
      "Ġcompr": 8546,
      "Ġbot": 8547,
      "divis": 8548,
      "Ġdataset": 8549,
      "Ġattitude": 8550,
      "you": 8551,
      "Ġrecy": 8552,
      "Î»": 8553,
      "ĠLast": 8554,
      "Ġdriven": 8555,
      "osion": 8556,
      "Ġpartly": 8557,
      "forward": 8558,
      "âĢĻ,": 8559,
      "Ġbreath": 8560,
      "Ġ`__": 8561,
      "Ġadvoc": 8562,
      "Ġretrie": 8563,
      "995": 8564,
      "Ġfavour": 8565,
      "Ġcrucial": 8566,
      "Ġbomb": 8567,
      "Mod": 8568,
      "Ġcalcium": 8569,
      "fall": 8570,
      "arest": 8571,
      "ĠNaz": 8572,
      "ĠAge": 8573,
      "Ġelsewhere": 8574,
      "Ġinhabit": 8575,
      "Ġenorm": 8576,
      "Ġadvert": 8577,
      "dr": 8578,
      "Ġapplicable": 8579,
      "(),": 8580,
      "duction": 8581,
      "stra": 8582,
      "everal": 8583,
      "Ġdetermining": 8584,
      "ĠDevelopment": 8585,
      "Ġcontrary": 8586,
      "Up": 8587,
      "ĠRev": 8588,
      "Ġprofessor": 8589,
      "Ġpossession": 8590,
      "Ġconfirm": 8591,
      "ĠFlorida": 8592,
      "ande": 8593,
      "Ġtemporary": 8594,
      "ĠEle": 8595,
      "Ġauss": 8596,
      "Ġrice": 8597,
      "Ġscholars": 8598,
      "Ġprocedures": 8599,
      "Table": 8600,
      "ĠEqu": 8601,
      "iary": 8602,
      "textit": 8603,
      "Ġilleg": 8604,
      "ounce": 8605,
      "Ġlarv": 8606,
      "orical": 8607,
      "ĠScholar": 8608,
      "ĠmÃªme": 8609,
      "PE": 8610,
      "Ġpit": 8611,
      "irection": 8612,
      "Ġpaths": 8613,
      "Ġaffairs": 8614,
      "Ġdiversity": 8615,
      "Ġknowing": 8616,
      "agonal": 8617,
      "ican": 8618,
      "Ġcaptured": 8619,
      "Ġreceiving": 8620,
      "Ġstatistics": 8621,
      "pay": 8622,
      "Em": 8623,
      "Ġsmiling": 8624,
      "Ġmerch": 8625,
      "Ġbreathing": 8626,
      "ĠFour": 8627,
      "Ġdisk": 8628,
      "Ġpeculiar": 8629,
      "Ġtel": 8630,
      "Ġwithdraw": 8631,
      "Ġfinished": 8632,
      "ĠSort": 8633,
      "Ġmaybe": 8634,
      "Ġdoub": 8635,
      "Ġpasses": 8636,
      "Ġvessel": 8637,
      "Ġwheel": 8638,
      "Ġgained": 8639,
      "Ġchannel": 8640,
      "Ġhaz": 8641,
      "Ġprobation": 8642,
      "Ġreward": 8643,
      "PL": 8644,
      "Even": 8645,
      "Yes": 8646,
      "Ġcopper": 8647,
      "agers": 8648,
      "pus": 8649,
      "Ġma": 8650,
      "pired": 8651,
      "Ġevolved": 8652,
      "foot": 8653,
      "htt": 8654,
      "ĠTotal": 8655,
      "ĠCast": 8656,
      "Ġemergency": 8657,
      "ĠHave": 8658,
      "Ġcrown": 8659,
      "Ġpip": 8660,
      "Ġcond": 8661,
      "Ġdesigns": 8662,
      "Ġstudying": 8663,
      "Ġlights": 8664,
      "ĠEst": 8665,
      "âģ": 8666,
      "Ġslaves": 8667,
      "ĠSometimes": 8668,
      "Ġbankruptcy": 8669,
      "Ġvoc": 8670,
      "Ġadvantages": 8671,
      "Ġdiagnosis": 8672,
      "Ġdivisible": 8673,
      "screen": 8674,
      "enter": 8675,
      "Ġtendency": 8676,
      "arer": 8677,
      "Ġmas": 8678,
      "amine": 8679,
      "ĠGes": 8680,
      "Ġcompound": 8681,
      "atted": 8682,
      "ribution": 8683,
      "ĠStep": 8684,
      "filename": 8685,
      "ĠPass": 8686,
      "Ġarchitecture": 8687,
      "Ġintensity": 8688,
      "Ġdemands": 8689,
      "Ġbeach": 8690,
      "Ġsale": 8691,
      "Ġ(âĢľ": 8692,
      "Ġmanaged": 8693,
      "Ġquarter": 8694,
      "eli": 8695,
      "Ġinvolving": 8696,
      "ĠOper": 8697,
      "Ġnoun": 8698,
      "Ġexecuted": 8699,
      "Ġgap": 8700,
      "Ġremote": 8701,
      "Ġshock": 8702,
      "ĠVII": 8703,
      "Ġpsychological": 8704,
      "Ġhash": 8705,
      "Ġparticle": 8706,
      "Ġcats": 8707,
      "Ġacting": 8708,
      "Ġwages": 8709,
      "randint": 8710,
      "ILL": 8711,
      "amma": 8712,
      "atz": 8713,
      "Ġenviron": 8714,
      "ĠStat": 8715,
      "Ġsigned": 8716,
      "Ġforests": 8717,
      "Ġburning": 8718,
      "Ġcong": 8719,
      "Ġsupports": 8720,
      ")))": 8721,
      "994": 8722,
      "ĠPeter": 8723,
      "Ġthirty": 8724,
      "azing": 8725,
      "clude": 8726,
      "Ġregulations": 8727,
      "Ġshore": 8728,
      "Ġkingdom": 8729,
      "assertEqual": 8730,
      "Ġbutter": 8731,
      "ĠProject": 8732,
      "Ġleadership": 8733,
      "à¥Ģ": 8734,
      "Ġtick": 8735,
      "anger": 8736,
      "utation": 8737,
      "ammation": 8738,
      "Ġdrag": 8739,
      "Ġorganism": 8740,
      "itative": 8741,
      "Ġrecursively": 8742,
      "Ġfoundation": 8743,
      "ictionaries": 8744,
      "Ġcomparing": 8745,
      "Ġvolcan": 8746,
      "Ġdream": 8747,
      "enz": 8748,
      "She": 8749,
      "Ġrivers": 8750,
      "Ġdoctrine": 8751,
      "heric": 8752,
      "Ġremarkable": 8753,
      "small": 8754,
      "ITED": 8755,
      "host": 8756,
      "ao": 8757,
      "orms": 8758,
      "env": 8759,
      "ensch": 8760,
      "zed": 8761,
      "Hist": 8762,
      "Ġà¤¸": 8763,
      "ĠCase": 8764,
      "tail": 8765,
      "Ġmine": 8766,
      "Ġscope": 8767,
      "Ġcalculation": 8768,
      "Ġmanifest": 8769,
      "Ġclassification": 8770,
      "iere": 8771,
      "Ġ[[": 8772,
      "Ġalleg": 8773,
      "Ġstrange": 8774,
      "icon": 8775,
      "Ġstronger": 8776,
      "SI": 8777,
      "Ġmeal": 8778,
      "Ġduration": 8779,
      "Ġelectrons": 8780,
      "reverse": 8781,
      "Ġburden": 8782,
      "omial": 8783,
      "Ġconve": 8784,
      "ĠBerlin": 8785,
      "hÃ¤lt": 8786,
      "Ġroyal": 8787,
      "Ġdoi": 8788,
      "ĠAuthor": 8789,
      "Ġoccurrence": 8790,
      "Ġdistant": 8791,
      "flanz": 8792,
      "Ġsad": 8793,
      "cket": 8794,
      "Ġsyndrome": 8795,
      "uer": 8796,
      "CD": 8797,
      "ifice": 8798,
      "Ġtong": 8799,
      "Ġfeeding": 8800,
      "Ġoutcome": 8801,
      "Ġyounger": 8802,
      "Ã³n": 8803,
      "Ġecosystem": 8804,
      "Ġgirls": 8805,
      "Ġdecorative": 8806,
      "gency": 8807,
      "iences": 8808,
      "Aug": 8809,
      "ĠBefore": 8810,
      "ila": 8811,
      "ĠAuf": 8812,
      "prison": 8813,
      "Ġencoura": 8814,
      "Ġspoken": 8815,
      "Ġnitrogen": 8816,
      "Ġrecovery": 8817,
      "Ġintric": 8818,
      "Ġearliest": 8819,
      "Ġremoval": 8820,
      "Ġnose": 8821,
      "Ġsmoke": 8822,
      "Ġfewer": 8823,
      "ANT": 8824,
      "Ġmaintaining": 8825,
      "Ġrefused": 8826,
      "ĠChicago": 8827,
      "Ġelected": 8828,
      "Ġclouds": 8829,
      "Ġcriteria": 8830,
      "Ġlake": 8831,
      "Ġrobot": 8832,
      "Ġperfectly": 8833,
      "Ġdess": 8834,
      "Ġlaboratory": 8835,
      "comes": 8836,
      "Related": 8837,
      "Ġrational": 8838,
      "igkeit": 8839,
      "VER": 8840,
      "Ġprox": 8841,
      "Pre": 8842,
      "arsh": 8843,
      "ansas": 8844,
      "Ġstyl": 8845,
      "ĠHall": 8846,
      "ĠJudge": 8847,
      "ĠÃ¤": 8848,
      "Ġsaved": 8849,
      "Ġmobile": 8850,
      "PR": 8851,
      "ãĥ¼": 8852,
      "Ġexisted": 8853,
      "Ġdelivered": 8854,
      "Ġpurple": 8855,
      "ĠNa": 8856,
      "Ġseat": 8857,
      "Ġtribes": 8858,
      "Par": 8859,
      "Ġboys": 8860,
      "Ġcustomers": 8861,
      "entry": 8862,
      "Ġoccas": 8863,
      "Ġrealize": 8864,
      "Ġviel": 8865,
      "ROM": 8866,
      "FF": 8867,
      "ĠIslam": 8868,
      "Ġinfluenced": 8869,
      "onents": 8870,
      "urd": 8871,
      "Ġdemonstrated": 8872,
      "Ġwriters": 8873,
      "Ġrom": 8874,
      "Ġquiet": 8875,
      "Ġmechanisms": 8876,
      "Ġexped": 8877,
      "copy": 8878,
      "125": 8879,
      "ĠWyeth": 8880,
      "ALL": 8881,
      "isted": 8882,
      "106": 8883,
      "Ġmanufacturing": 8884,
      "Ġexamined": 8885,
      "Ġsimult": 8886,
      "ĠVis": 8887,
      "Ġclinical": 8888,
      "avel": 8889,
      "ĠDefine": 8890,
      "akers": 8891,
      "ĠWikipedia": 8892,
      "attered": 8893,
      "etics": 8894,
      "Ġborrow": 8895,
      "Ġimprovement": 8896,
      "Ġclassroom": 8897,
      "Ġgenerations": 8898,
      "ĠIrish": 8899,
      "idential": 8900,
      "olt": 8901,
      "Ġunw": 8902,
      "Ã©d": 8903,
      "osh": 8904,
      "iously": 8905,
      "ĠEnergy": 8906,
      "Ġsequences": 8907,
      "Ġsquares": 8908,
      "Ġvictory": 8909,
      "Ġsports": 8910,
      "General": 8911,
      "Ġexperimental": 8912,
      "ĠSyn": 8913,
      "Ġengage": 8914,
      "Ġtransportation": 8915,
      "quit": 8916,
      "Ġzwischen": 8917,
      "Ġion": 8918,
      "$$": 8919,
      "Ġincident": 8920,
      "Ġsettled": 8921,
      "Ġrotation": 8922,
      "Ġcomplaint": 8923,
      "ĠHence": 8924,
      "Ġkne": 8925,
      "encing": 8926,
      "Ġalive": 8927,
      "imony": 8928,
      "Ġplatform": 8929,
      "angular": 8930,
      "Ġreaching": 8931,
      "Ġpale": 8932,
      "Ġtowns": 8933,
      "Ġrecip": 8934,
      "Ġreign": 8935,
      "Ġcel": 8936,
      "elles": 8937,
      "ĠVirginia": 8938,
      "ĠPenn": 8939,
      "Ġsla": 8940,
      "Total": 8941,
      "Ġglucose": 8942,
      "Ġpeak": 8943,
      "Ġslave": 8944,
      "ugs": 8945,
      "Ġfalling": 8946,
      "ĠSpec": 8947,
      "Ġempire": 8948,
      "Ġlimitations": 8949,
      "Ġtract": 8950,
      "ĠPen": 8951,
      "ĠBul": 8952,
      "Ġmixture": 8953,
      "Ġadministrative": 8954,
      "ami": 8955,
      "loc": 8956,
      "Ġanten": 8957,
      "ĠMedical": 8958,
      "pling": 8959,
      "Ġdistinctive": 8960,
      "Ġgolden": 8961,
      "ĠSign": 8962,
      "ĠBull": 8963,
      "Reg": 8964,
      "à¤·": 8965,
      "Ġisolated": 8966,
      "ĠQueen": 8967,
      "ĠkÃ¶n": 8968,
      "Ġfacilit": 8969,
      "Ġmatches": 8970,
      "Ġprepare": 8971,
      "Ġstones": 8972,
      "usal": 8973,
      "adder": 8974,
      "green": 8975,
      "Ġdatetime": 8976,
      "they": 8977,
      "Ġfiber": 8978,
      ".*,": 8979,
      "Ġahead": 8980,
      "Ġimpair": 8981,
      "Ġesp": 8982,
      "Ġarrays": 8983,
      "utations": 8984,
      "QU": 8985,
      "istical": 8986,
      "Ġcow": 8987,
      "\\]": 8988,
      "ĠChange": 8989,
      "Ġthereby": 8990,
      "MA": 8991,
      "iva": 8992,
      "ĠStart": 8993,
      "anted": 8994,
      "ĠSuper": 8995,
      "erman": 8996,
      "Ġagencies": 8997,
      "ket": 8998,
      "BRW": 8999,
      "Trans": 9000,
      "Ġpeoples": 9001,
      "halten": 9002,
      "ĠIndians": 9003,
      "aments": 9004,
      "Ġattend": 9005,
      "Ġcraft": 9006,
      "Ġgathered": 9007,
      "sqrt": 9008,
      "Because": 9009,
      "Are": 9010,
      "Ġpartners": 9011,
      "Ġ''": 9012,
      "914": 9013,
      "Ġentre": 9014,
      "Ġpointer": 9015,
      "ĠGroup": 9016,
      "Ġpunct": 9017,
      "Ġdramatic": 9018,
      "rose": 9019,
      "chr": 9020,
      "Image": 9021,
      "Ġinvalid": 9022,
      "Ġimplemented": 9023,
      "race": 9024,
      "DA": 9025,
      "Ġcommission": 9026,
      "Ġacquired": 9027,
      "eld": 9028,
      "mble": 9029,
      "Ġvaccine": 9030,
      "Ġcovers": 9031,
      "Ġevening": 9032,
      "riers": 9033,
      "ometers": 9034,
      "<=": 9035,
      "cases": 9036,
      "Ġlatest": 9037,
      "Ġminds": 9038,
      "ĠDIST": 9039,
      "Ġreadily": 9040,
      "Mar": 9041,
      "rive": 9042,
      "ĠEdward": 9043,
      "Ġvirtual": 9044,
      "Ġfavorite": 9045,
      "alis": 9046,
      "being": 9047,
      "Ġrab": 9048,
      "ĠBill": 9049,
      "ĠJohnson": 9050,
      ":\")": 9051,
      "Ġvi": 9052,
      "Ġflying": 9053,
      "Ġrequirement": 9054,
      ",[": 9055,
      "Ġexamine": 9056,
      "unden": 9057,
      "ĠtrÃ¨s": 9058,
      "ometer": 9059,
      "Ġslavery": 9060,
      "Ġbrows": 9061,
      "105": 9062,
      "Ġspectrum": 9063,
      "Ñĥ": 9064,
      "Ġsuddenly": 9065,
      "Ġgeb": 9066,
      "oston": 9067,
      "CL": 9068,
      "amps": 9069,
      "ĠIl": 9070,
      "will": 9071,
      "usiness": 9072,
      "icus": 9073,
      "Ġmyst": 9074,
      "Ġtrace": 9075,
      "Ġarise": 9076,
      "bul": 9077,
      "EE": 9078,
      "emies": 9079,
      "ĠLy": 9080,
      "Ġbeneath": 9081,
      "cient": 9082,
      "Ġwed": 9083,
      "Ġtemple": 9084,
      "otype": 9085,
      "ograp": 9086,
      "Ġtow": 9087,
      "Ġplates": 9088,
      "uy": 9089,
      "ĠVar": 9090,
      "WRW": 9091,
      "Ġcharges": 9092,
      "Ġdoctors": 9093,
      "consc": 9094,
      "oria": 9095,
      "Ġcalculating": 9096,
      "Ġsession": 9097,
      "including": 9098,
      "ĠKnow": 9099,
      "Ġevaluate": 9100,
      "Ġsurfaces": 9101,
      "ĠFBI": 9102,
      "Ġlogo": 9103,
      "Sm": 9104,
      "Ġsymp": 9105,
      "ilder": 9106,
      "Ã¼h": 9107,
      "ishop": 9108,
      "Ġethnic": 9109,
      "Ġinfant": 9110,
      "scale": 9111,
      "Ġbrings": 9112,
      "Ã¨res": 9113,
      "Ġuncertain": 9114,
      "Ġtelev": 9115,
      "Ġdemocracy": 9116,
      "pur": 9117,
      "har": 9118,
      "Ġremainder": 9119,
      "ĠWord": 9120,
      "Ġbigger": 9121,
      "Ġframework": 9122,
      "azine": 9123,
      "Ġcsv": 9124,
      "ulture": 9125,
      "Ġargue": 9126,
      "Invalid": 9127,
      "Ġdiscrimination": 9128,
      "Ġconserv": 9129,
      "ĠWall": 9130,
      "ente": 9131,
      "Ġprovin": 9132,
      "Ġlip": 9133,
      "ithmetic": 9134,
      "turtle": 9135,
      "Ġparticipants": 9136,
      "Ġbonds": 9137,
      "Ġharmful": 9138,
      "Ġmolecular": 9139,
      "ĠThrough": 9140,
      "cking": 9141,
      "Ġoral": 9142,
      "Ã¶rm": 9143,
      "Ġdecade": 9144,
      "roat": 9145,
      "Ġquantities": 9146,
      "Ã¤hrend": 9147,
      "Ġdenied": 9148,
      "closed": 9149,
      "ĠText": 9150,
      "Ġ',": 9151,
      "ĠGener": 9152,
      "Oct": 9153,
      "Ġcoins": 9154,
      "orp": 9155,
      "Ġpivot": 9156,
      "Ġfabric": 9157,
      "lock": 9158,
      "MENT": 9159,
      "Ġexplicit": 9160,
      "Ġpartial": 9161,
      "ented": 9162,
      "fast": 9163,
      "Ã©ri": 9164,
      "ĠIter": 9165,
      "Ġstopped": 9166,
      "Ġirregular": 9167,
      "aven": 9168,
      "Ġmarkets": 9169,
      "ĠTV": 9170,
      "earing": 9171,
      "Ġbeneficial": 9172,
      "Ġthanks": 9173,
      "###": 9174,
      "Ġcotton": 9175,
      "Ġreaders": 9176,
      "Ġacademic": 9177,
      "ĠThough": 9178,
      "exec": 9179,
      "emia": 9180,
      "ĠURL": 9181,
      "Ġquery": 9182,
      "Ġenumerate": 9183,
      "Ġbare": 9184,
      "Ġspecul": 9185,
      "Ġworship": 9186,
      "kind": 9187,
      "ruption": 9188,
      "version": 9189,
      "Ġont": 9190,
      "OH": 9191,
[...]
